<unk>	0
<s>	0
</s>	0
<0x00>	0
<0x01>	0
<0x02>	0
<0x03>	0
<0x04>	0
<0x05>	0
<0x06>	0
<0x07>	0
<0x08>	0
<0x09>	0
<0x0A>	0
<0x0B>	0
<0x0C>	0
<0x0D>	0
<0x0E>	0
<0x0F>	0
<0x10>	0
<0x11>	0
<0x12>	0
<0x13>	0
<0x14>	0
<0x15>	0
<0x16>	0
<0x17>	0
<0x18>	0
<0x19>	0
<0x1A>	0
<0x1B>	0
<0x1C>	0
<0x1D>	0
<0x1E>	0
<0x1F>	0
<0x20>	0
<0x21>	0
<0x22>	0
<0x23>	0
<0x24>	0
<0x25>	0
<0x26>	0
<0x27>	0
<0x28>	0
<0x29>	0
<0x2A>	0
<0x2B>	0
<0x2C>	0
<0x2D>	0
<0x2E>	0
<0x2F>	0
<0x30>	0
<0x31>	0
<0x32>	0
<0x33>	0
<0x34>	0
<0x35>	0
<0x36>	0
<0x37>	0
<0x38>	0
<0x39>	0
<0x3A>	0
<0x3B>	0
<0x3C>	0
<0x3D>	0
<0x3E>	0
<0x3F>	0
<0x40>	0
<0x41>	0
<0x42>	0
<0x43>	0
<0x44>	0
<0x45>	0
<0x46>	0
<0x47>	0
<0x48>	0
<0x49>	0
<0x4A>	0
<0x4B>	0
<0x4C>	0
<0x4D>	0
<0x4E>	0
<0x4F>	0
<0x50>	0
<0x51>	0
<0x52>	0
<0x53>	0
<0x54>	0
<0x55>	0
<0x56>	0
<0x57>	0
<0x58>	0
<0x59>	0
<0x5A>	0
<0x5B>	0
<0x5C>	0
<0x5D>	0
<0x5E>	0
<0x5F>	0
<0x60>	0
<0x61>	0
<0x62>	0
<0x63>	0
<0x64>	0
<0x65>	0
<0x66>	0
<0x67>	0
<0x68>	0
<0x69>	0
<0x6A>	0
<0x6B>	0
<0x6C>	0
<0x6D>	0
<0x6E>	0
<0x6F>	0
<0x70>	0
<0x71>	0
<0x72>	0
<0x73>	0
<0x74>	0
<0x75>	0
<0x76>	0
<0x77>	0
<0x78>	0
<0x79>	0
<0x7A>	0
<0x7B>	0
<0x7C>	0
<0x7D>	0
<0x7E>	0
<0x7F>	0
<0x80>	0
<0x81>	0
<0x82>	0
<0x83>	0
<0x84>	0
<0x85>	0
<0x86>	0
<0x87>	0
<0x88>	0
<0x89>	0
<0x8A>	0
<0x8B>	0
<0x8C>	0
<0x8D>	0
<0x8E>	0
<0x8F>	0
<0x90>	0
<0x91>	0
<0x92>	0
<0x93>	0
<0x94>	0
<0x95>	0
<0x96>	0
<0x97>	0
<0x98>	0
<0x99>	0
<0x9A>	0
<0x9B>	0
<0x9C>	0
<0x9D>	0
<0x9E>	0
<0x9F>	0
<0xA0>	0
<0xA1>	0
<0xA2>	0
<0xA3>	0
<0xA4>	0
<0xA5>	0
<0xA6>	0
<0xA7>	0
<0xA8>	0
<0xA9>	0
<0xAA>	0
<0xAB>	0
<0xAC>	0
<0xAD>	0
<0xAE>	0
<0xAF>	0
<0xB0>	0
<0xB1>	0
<0xB2>	0
<0xB3>	0
<0xB4>	0
<0xB5>	0
<0xB6>	0
<0xB7>	0
<0xB8>	0
<0xB9>	0
<0xBA>	0
<0xBB>	0
<0xBC>	0
<0xBD>	0
<0xBE>	0
<0xBF>	0
<0xC0>	0
<0xC1>	0
<0xC2>	0
<0xC3>	0
<0xC4>	0
<0xC5>	0
<0xC6>	0
<0xC7>	0
<0xC8>	0
<0xC9>	0
<0xCA>	0
<0xCB>	0
<0xCC>	0
<0xCD>	0
<0xCE>	0
<0xCF>	0
<0xD0>	0
<0xD1>	0
<0xD2>	0
<0xD3>	0
<0xD4>	0
<0xD5>	0
<0xD6>	0
<0xD7>	0
<0xD8>	0
<0xD9>	0
<0xDA>	0
<0xDB>	0
<0xDC>	0
<0xDD>	0
<0xDE>	0
<0xDF>	0
<0xE0>	0
<0xE1>	0
<0xE2>	0
<0xE3>	0
<0xE4>	0
<0xE5>	0
<0xE6>	0
<0xE7>	0
<0xE8>	0
<0xE9>	0
<0xEA>	0
<0xEB>	0
<0xEC>	0
<0xED>	0
<0xEE>	0
<0xEF>	0
<0xF0>	0
<0xF1>	0
<0xF2>	0
<0xF3>	0
<0xF4>	0
<0xF5>	0
<0xF6>	0
<0xF7>	0
<0xF8>	0
<0xF9>	0
<0xFA>	0
<0xFB>	0
<0xFC>	0
<0xFD>	0
<0xFE>	0
<0xFF>	0
s	-3.06666
▁the	-3.33881
.	-3.50672
,	-3.51507
▁	-3.88513
▁of	-4.03014
▁and	-4.10302
▁to	-4.13694
▁a	-4.22979
▁in	-4.309
e	-4.38755
t	-4.47748
ing	-4.48655
ed	-4.49334
a	-4.64291
n	-4.74084
d	-4.77334
▁is	-4.87194
o	-4.91575
er	-4.93179
y	-4.96974
u	-5.09222
p	-5.10239
▁The	-5.19582
al	-5.20123
i	-5.21125
▁that	-5.26462
▁are	-5.30783
▁for	-5.33437
m	-5.36388
c	-5.38011
r	-5.43088
ly	-5.43228
'	-5.43348
g	-5.48536
▁on	-5.49078
▁was	-5.52747
▁be	-5.53068
-	-5.59408
ar	-5.62574
▁as	-5.63087
▁by	-5.66153
▁with	-5.67365
or	-5.69581
f	-5.70173
▁s	-5.75995
b	-5.77849
es	-5.80986
in	-5.82857
l	-5.8307
▁S	-5.83764
re	-5.83951
k	-5.85362
ur	-5.87728
▁or	-5.87949
▁have	-5.883
▁it	-5.91566
▁from	-5.95026
an	-5.96822
h	-5.97539
▁not	-6.00394
ro	-6.03788
le	-6.04908
▁A	-6.07413
▁were	-6.07809
▁(	-6.08833
▁their	-6.08914
▁at	-6.09845
▁re	-6.11022
th	-6.11412
▁an	-6.11869
▁can	-6.14014
▁m	-6.1481
▁f	-6.154
▁p	-6.16794
on	-6.18742
ra	-6.25556
w	-6.25745
▁you	-6.25766
il	-6.25905
en	-6.26249
v	-6.27842
ri	-6.31846
it	-6.3272
)	-6.33196
at	-6.33357
▁"	-6.3482
▁which	-6.34874
▁has	-6.35581
ch	-6.40704
▁other	-6.40936
▁c	-6.42572
st	-6.42681
et	-6.42872
ers	-6.45545
▁B	-6.46171
ation	-6.46898
▁but	-6.47448
▁In	-6.47859
▁they	-6.4996
us	-6.50014
ent	-6.51192
▁been	-6.51413
▁will	-6.52616
▁H	-6.53387
ic	-6.54233
▁w	-6.54391
▁one	-6.5442
▁this	-6.56225
▁M	-6.59054
ion	-6.59818
▁people	-6.59958
▁t	-6.60749
lo	-6.61223
▁de	-6.62752
▁d	-6.63144
▁more	-6.63856
▁so	-6.64001
▁b	-6.64311
▁It	-6.64419
is	-6.65662
▁also	-6.65846
"	-6.66849
la	-6.67172
▁P	-6.68509
te	-6.69799
▁may	-6.69979
ies	-6.72689
ll	-6.73536
ry	-6.74078
▁st	-6.76838
▁all	-6.76997
▁C	-6.78103
▁had	-6.78957
▁D	-6.81652
▁do	-6.82602
wa	-6.83494
▁F	-6.85892
▁most	-6.85915
▁who	-6.85993
id	-6.86318
▁G	-6.86808
ul	-6.87333
li	-6.87831
▁time	-6.88411
▁he	-6.88877
▁many	-6.91232
able	-6.9279
▁two	-6.93607
▁E	-6.93632
▁T	-6.94832
ce	-6.95662
▁r	-6.95862
1	-6.9594
ck	-6.96223
▁new	-6.9631
▁some	-6.96315
0	-6.97779
▁con	-6.97995
▁like	-6.99087
ve	-6.99356
▁g	-6.99593
▁po	-6.99909
ist	-7.0131
▁its	-7.01887
▁than	-7.01957
as	-7.02127
el	-7.03994
ate	-7.04456
▁about	-7.04884
▁car	-7.05911
ng	-7.06066
▁no	-7.06902
▁his	-7.07319
▁place	-7.07914
ive	-7.08347
▁there	-7.1107
z	-7.11128
▁l	-7.11347
▁into	-7.11695
▁used	-7.11987
5	-7.12677
▁co	-7.12679
ity	-7.13448
▁after	-7.14265
de	-7.14366
▁often	-7.14453
ac	-7.1581
▁said	-7.17603
▁up	-7.17697
▁un	-7.17736
▁work	-7.17779
est	-7.18436
nt	-7.18577
ian	-7.19175
:	-7.21046
▁make	-7.21048
▁over	-7.21525
▁her	-7.21839
ment	-7.21976
S	-7.22496
ant	-7.23525
end	-7.23675
▁This	-7.24618
▁your	-7.25828
▁only	-7.27263
if	-7.27909
um	-7.28176
▁made	-7.28324
4	-7.30071
ia	-7.30942
▁W	-7.30991
▁N	-7.3142
co	-7.31789
x	-7.32136
7	-7.32163
▁first	-7.32167
▁should	-7.32167
▁water	-7.32173
▁such	-7.32173
▁back	-7.32238
▁U	-7.32258
▁form	-7.33149
▁go	-7.33943
▁if	-7.34398
ver	-7.35451
▁would	-7.36167
).	-7.36617
ke	-7.36904
▁fa	-7.37948
▁even	-7.39141
▁He	-7.39153
ho	-7.39154
mo	-7.3943
▁take	-7.40337
▁ski	-7.40617
▁K	-7.40648
▁get	-7.40654
▁them	-7.4094
ha	-7.42403
j	-7.43991
▁ex	-7.44081
age	-7.44653
▁through	-7.44662
▁world	-7.44682
one	-7.44897
▁called	-7.45021
ction	-7.4575
▁see	-7.46538
▁I	-7.46558
ge	-7.47773
▁country	-7.49227
▁where	-7.49227
▁need	-7.49254
▁team	-7.49434
19	-7.49532
▁out	-7.49857
▁pre	-7.50569
8	-7.51801
▁end	-7.52034
all	-7.52723
▁being	-7.52867
▁Co	-7.53089
ous	-7.53443
▁large	-7.5376
tic	-7.53865
▁show	-7.53991
▁very	-7.54011
▁year	-7.54081
▁pro	-7.55025
ting	-7.55395
ud	-7.56179
."	-7.56502
▁state	-7.56613
ice	-7.56663
ta	-7.56957
▁h	-7.58598
ish	-7.58807
▁because	-7.58989
▁between	-7.58989
▁different	-7.58989
▁found	-7.58989
▁just	-7.58989
▁well	-7.5911
ated	-7.59697
6	-7.60864
ine	-7.6108
ne	-7.6178
00	-7.61863
▁any	-7.62395
▁2	-7.63977
;	-7.64252
▁include	-7.64252
▁same	-7.64252
▁own	-7.64253
▁main	-7.64266
▁high	-7.64281
mi	-7.64338
ions	-7.65004
ical	-7.65851
▁use	-7.66085
mb	-7.66371
▁ba	-7.6693
▁we	-7.67172
G	-7.67739
▁these	-7.68661
om	-7.68749
▁R	-7.69007
▁O	-7.69281
line	-7.69329
▁sp	-7.69731
▁South	-7.69808
▁each	-7.69809
▁when	-7.69809
▁though	-7.6981
▁near	-7.69816
▁way	-7.69864
air	-7.69875
▁known	-7.70245
▁bo	-7.70362
3	-7.70622
▁part	-7.70792
▁animals	-7.71401
ors	-7.71502
ure	-7.71708
▁me	-7.72271
▁They	-7.72803
▁hi	-7.72845
▁Ma	-7.73474
2	-7.73599
ph	-7.74447
im	-7.74894
▁years	-7.75576
▁north	-7.75685
▁around	-7.7569
▁La	-7.77208
and	-7.77217
▁ch	-7.777
▁No	-7.78495
▁St	-7.7879
▁4	-7.79017
▁sh	-7.79556
▁There	-7.79684
P	-7.79871
9	-7.81454
▁200	-7.81933
▁comp	-7.81939
▁culture	-7.8194
▁system	-7.8194
▁while	-7.8194
▁provide	-7.8194
▁common	-7.81941
▁lead	-7.81941
▁what	-7.81944
▁close	-7.8195
ight	-7.82082
▁site	-7.82264
low	-7.82482
tain	-7.82528
▁For	-7.8286
ence	-7.83047
▁L	-7.83083
▁day	-7.83153
rd	-7.83595
old	-7.83722
▁dis	-7.84005
▁ca	-7.84529
▁government	-7.88607
▁group	-7.88607
▁result	-7.88607
▁home	-7.88609
▁still	-7.88611
▁along	-7.88612
▁present	-7.88617
▁during	-7.88619
▁down	-7.8862
▁find	-7.88622
▁due	-7.88637
▁say	-7.88682
▁vo	-7.88701
▁plant	-7.8891
▁city	-7.88987
▁under	-7.88991
▁reported	-7.89303
▁All	-7.89393
▁exp	-7.89585
▁man	-7.93418
▁Ch	-7.93501
C	-7.9366
▁small	-7.94969
▁countries	-7.95749
’	-7.95749
▁million	-7.95749
▁before	-7.9575
▁name	-7.9575
▁become	-7.95754
▁help	-7.95756
▁Some	-7.95759
▁began	-7.95762
▁food	-7.95927
▁without	-7.9593
que	-7.95942
▁cover	-7.96001
▁If	-7.96322
▁men	-7.96935
▁areas	-7.97771
ally	-7.98042
ary	-7.98255
min	-8.00003
land	-8.00867
N	-8.01258
A	-8.01365
▁As	-8.01457
▁To	-8.01541
▁Africa	-8.02521
▁travel	-8.03437
▁environment	-8.03442
▁important	-8.03442
▁period	-8.03442
▁population	-8.03442
▁matter	-8.03442
▁three	-8.03442
▁control	-8.03442
▁long	-8.03454
▁allow	-8.03467
ise	-8.03491
▁change	-8.03496
▁interest	-8.03521
▁cause	-8.0357
▁come	-8.03605
▁member	-8.03622
▁V	-8.03873
▁now	-8.03969
▁look	-8.03988
ty	-8.03996
▁vi	-8.04723
▁3	-8.04947
man	-8.06579
▁An	-8.06651
▁good	-8.06915
▁goods	-8.08238
▁cat	-8.0877
the	-8.09565
D	-8.09704
▁start	-8.11231
spect	-8.11532
▁every	-8.11709
owever	-8.1171
▁Re	-8.11774
▁follow	-8.11775
/	-8.11775
▁United	-8.11775
▁document	-8.11775
▁including	-8.11775
▁pyramid	-8.11775
▁understand	-8.11775
▁those	-8.11775
▁open	-8.11776
▁road	-8.11777
▁children	-8.11777
▁Earth	-8.11778
▁Most	-8.11783
▁States	-8.11783
▁region	-8.11794
▁things	-8.11794
▁run	-8.11794
▁imp	-8.11795
▁cases	-8.11801
▁ob	-8.11934
ki	-8.1204
▁did	-8.1234
▁today	-8.13062
▁based	-8.133
put	-8.13307
▁she	-8.1357
▁Ro	-8.14156
ick	-8.14413
ism	-8.14473
▁Po	-8.15005
ments	-8.15238
▁6	-8.15334
to	-8.15961
▁age	-8.16563
▁us	-8.17715
T	-8.18792
ub	-8.1905
▁per	-8.19456
▁great	-8.20075
▁Australia	-8.20866
▁behavior	-8.20866
▁damage	-8.20866
▁example	-8.20866
▁experience	-8.20866
▁feature	-8.20866
▁number	-8.20866
▁similar	-8.20866
▁women	-8.20867
▁game	-8.20867
▁century	-8.20869
▁could	-8.20869
▁since	-8.20874
,000	-8.20874
▁how	-8.20877
▁came	-8.2088
▁four	-8.20883
▁feet	-8.20884
▁few	-8.20886
▁usually	-8.20899
▁away	-8.20909
▁term	-8.20934
▁km	-8.20968
▁wide	-8.2103
▁India	-8.21071
▁15	-8.21109
▁both	-8.21264
▁affected	-8.21382
▁tri	-8.21496
▁inter	-8.21528
ful	-8.21572
ood	-8.2168
ually	-8.2172
▁cent	-8.21862
▁far	-8.22061
▁One	-8.2214
ton	-8.22409
▁gra	-8.22673
▁humans	-8.2359
ite	-8.23914
▁old	-8.23983
▁air	-8.24623
▁islands	-8.25103
arch	-8.255
mon	-8.26532
I	-8.27029
formation	-8.2716
30	-8.27393
▁par	-8.28075
▁Ba	-8.28317
▁act	-8.28823
▁bl	-8.30345
q	-8.3059
▁Japan	-8.30676
ember	-8.30776
▁safe	-8.30821
ological	-8.30866
▁support	-8.30866
▁thousand	-8.30866
▁disease	-8.30866
▁remain	-8.30866
▁several	-8.30866
▁normal	-8.30866
▁snow	-8.30866
▁local	-8.30866
▁keep	-8.30866
▁process	-8.30867
▁family	-8.30867
▁easy	-8.30867
▁better	-8.30868
▁early	-8.30868
▁class	-8.30868
▁National	-8.30868
▁house	-8.3087
▁much	-8.30876
▁East	-8.30879
▁river	-8.3088
▁mark	-8.30881
▁race	-8.30894
▁night	-8.30896
▁Roman	-8.30907
▁hand	-8.30983
▁received	-8.31059
▁learning	-8.31184
▁give	-8.3123
▁offer	-8.31308
ship	-8.3147
▁trip	-8.31577
▁On	-8.31653
ium	-8.32701
▁war	-8.33174
▁sent	-8.33563
▁set	-8.34035
mm	-8.3545
▁8	-8.35647
▁ha	-8.36724
ctor	-8.37052
▁Pa	-8.37981
▁island	-8.38159
day	-8.3843
rate	-8.399
▁cha	-8.40494
▁move	-8.40711
▁visit	-8.40782
igh	-8.40782
▁report	-8.408
▁know	-8.41083
ze	-8.41497
▁research	-8.41763
▁transport	-8.41811
▁minute	-8.41977
”	-8.41977
▁French	-8.41977
▁Middle	-8.41977
▁While	-8.41977
▁available	-8.41977
▁hospital	-8.41977
▁mountain	-8.41977
▁official	-8.41977
▁organization	-8.41977
▁popular	-8.41977
▁require	-8.41977
▁satellite	-8.41977
▁students	-8.41977
▁surviv	-8.41977
▁built	-8.41977
▁method	-8.41977
▁together	-8.41977
▁living	-8.41977
▁bird	-8.41979
▁related	-8.41979
▁certain	-8.4198
▁south	-8.4198
▁match	-8.4198
▁treat	-8.41982
▁leave	-8.41982
▁route	-8.41982
▁17	-8.41983
▁nations	-8.41983
▁clear	-8.41984
▁course	-8.41986
▁miles	-8.41986
▁tax	-8.41986
▁wild	-8.41988
▁walk	-8.41989
▁life	-8.41989
▁During	-8.41994
▁point	-8.41994
▁means	-8.42005
▁law	-8.42008
view	-8.42012
▁last	-8.42017
▁pass	-8.42044
▁hold	-8.42088
▁transportation	-8.42144
ible	-8.42157
▁lot	-8.42158
▁cave	-8.42169
▁our	-8.42176
▁European	-8.42223
▁stand	-8.42227
ip	-8.4227
east	-8.4229
▁park	-8.42341
▁finished	-8.42765
hu	-8.42824
▁free	-8.42985
▁traditional	-8.43013
▁African	-8.43346
▁These	-8.43503
▁started	-8.43631
▁using	-8.43726
▁going	-8.45561
meter	-8.45925
▁100	-8.46123
▁best	-8.46718
▁10	-8.49993
▁non	-8.50253
com	-8.50448
▁20	-8.51875
W	-8.52389
M	-8.5242
H	-8.52421
▁base	-8.53974
▁Europe	-8.542
▁develop	-8.54284
▁host	-8.54429
▁sometimes	-8.54477
▁suggest	-8.54477
Christian	-8.54477
▁Although	-8.54477
▁accident	-8.54477
▁adapt	-8.54477
▁amount	-8.54477
▁announced	-8.54477
▁capital	-8.54477
▁dinosaur	-8.54477
▁individual	-8.54477
▁photograph	-8.54477
▁problem	-8.54477
▁public	-8.54477
▁traffic	-8.54477
▁weather	-8.54477
▁wildlife	-8.54477
▁across	-8.54477
▁computer	-8.54477
▁After	-8.54477
▁biggest	-8.54477
▁election	-8.54477
▁special	-8.54477
▁police	-8.54479
▁strong	-8.54479
▁When	-8.54479
▁enough	-8.5448
▁company	-8.54481
▁arriv	-8.54482
▁18	-8.54482
▁phone	-8.54482
▁16	-8.54482
▁especially	-8.54482
▁power	-8.54484
▁adult	-8.54485
▁dark	-8.54485
▁New	-8.54486
▁Park	-8.54486
▁until	-8.54486
▁week	-8.54487
▁11	-8.54487
▁consist	-8.54499
▁reach	-8.54499
▁word	-8.54502
▁Many	-8.54505
▁stop	-8.5451
▁head	-8.54522
▁mob	-8.54526
▁But	-8.54535
▁least	-8.54585
uper	-8.54598
▁range	-8.546
▁town	-8.54623
▁generally	-8.54697
▁driver	-8.54699
body	-8.54839
▁later	-8.54893
▁—	-8.54924
▁flow	-8.5496
▁might	-8.54977
▁Germany	-8.55023
▁considered	-8.55085
▁largest	-8.55106
▁want	-8.55115
▁issue	-8.55117
▁sub	-8.55146
less	-8.55469
▁War	-8.55828
▁visiting	-8.55864
tru	-8.56284
▁side	-8.56533
▁less	-8.56774
▁event	-8.58305
▁land	-8.5844
▁We	-8.58799
oke	-8.61581
side	-8.62922
out	-8.63985
R	-8.6669
F	-8.66702
B	-8.66708
over	-8.67626
▁particular	-8.6829
▁call	-8.68511
▁major	-8.6867
▁North	-8.68762
!	-8.68763
▁France	-8.68763
▁John	-8.68763
▁July	-8.68763
▁Minister	-8.68763
▁Queen	-8.68763
▁Spanish	-8.68763
▁University	-8.68763
▁World	-8.68763
▁easier	-8.68763
▁either	-8.68763
▁language	-8.68763
▁program	-8.68763
▁scientific	-8.68763
▁simple	-8.68763
▁species	-8.68763
▁whether	-8.68763
▁accept	-8.68763
▁almost	-8.68763
▁beaches	-8.68763
▁wheel	-8.68763
▁expect	-8.68763
▁level	-8.68763
▁location	-8.68763
▁crash	-8.68763
▁making	-8.68763
▁fund	-8.68763
▁child	-8.68764
▁trans	-8.68764
▁variety	-8.68764
▁iron	-8.68765
▁swim	-8.68766
▁yard	-8.68766
▁sitting	-8.68766
▁image	-8.68766
▁reason	-8.68767
▁standard	-8.68768
▁Since	-8.68768
▁Island	-8.68769
▁hunt	-8.68769
▁money	-8.68769
▁China	-8.68769
▁presence	-8.68769
▁zone	-8.6877
▁season	-8.6877
▁camp	-8.6877
▁meaning	-8.68772
▁six	-8.68772
▁pull	-8.68778
▁coast	-8.68779
▁Paris	-8.68782
▁person	-8.68786
▁path	-8.68799
▁health	-8.68804
▁must	-8.68806
▁basic	-8.6881
▁stay	-8.68823
▁quite	-8.68867
▁order	-8.68881
▁Air	-8.68884
▁against	-8.68888
▁late	-8.68901
board	-8.68905
▁cut	-8.68933
▁took	-8.68977
▁light	-8.68992
▁break	-8.69027
▁ago	-8.69046
▁served	-8.69116
▁ground	-8.69284
▁share	-8.69327
▁(1	-8.69349
▁particularly	-8.6943
▁widely	-8.69531
▁full	-8.6967
▁indicated	-8.69811
▁wear	-8.699
50	-8.70166
▁bus	-8.70317
▁star	-8.70339
▁smaller	-8.70407
▁does	-8.71303
▁plane	-8.72667
▁tea	-8.74195
▁25	-8.74626
▁activ	-8.74864
▁Lo	-8.79595
▁human	-8.80439
▁animal	-8.80537
ange	-8.80648
O	-8.83337
▁finish	-8.84228
▁indicat	-8.84254
▁thin	-8.84423
▁America	-8.84482
▁format	-8.84573
▁German	-8.84692
▁brea	-8.8515
▁vari	-8.85206
▁agricultur	-8.85429
▁distinct	-8.85429
archipelago	-8.85429
▁According	-8.85429
▁August	-8.85429
▁Congress	-8.85429
▁Olympic	-8.85429
▁President	-8.85429
▁Taiwan	-8.85429
▁You	-8.85429
▁although	-8.85429
▁audience	-8.85429
▁authorities	-8.85429
▁current	-8.85429
▁education	-8.85429
▁effort	-8.85429
▁feathers	-8.85429
▁investigat	-8.85429
▁involve	-8.85429
▁leaving	-8.85429
▁modern	-8.85429
▁potential	-8.85429
▁republic	-8.85429
▁second	-8.85429
▁separat	-8.85429
▁service	-8.85429
▁societ	-8.85429
▁specific	-8.85429
▁technology	-8.85429
▁temperature	-8.85429
▁temple	-8.85429
▁tsunami	-8.85429
▁Prime	-8.8543
▁Sweden	-8.8543
▁extreme	-8.8543
▁focus	-8.8543
▁situation	-8.8543
▁brought	-8.8543
▁business	-8.8543
▁injured	-8.8543
▁job	-8.8543
▁threat	-8.8543
▁possible	-8.8543
▁towards	-8.8543
▁beyond	-8.8543
▁severe	-8.8543
▁seven	-8.8543
▁rather	-8.8543
▁record	-8.8543
▁cannot	-8.85431
▁national	-8.85431
▁direct	-8.85431
▁tourists	-8.85431
▁writing	-8.85431
▁reading	-8.85431
▁video	-8.85431
▁clock	-8.85431
▁Also	-8.85431
▁church	-8.85431
▁flight	-8.85431
struction	-8.85432
▁River	-8.85432
▁cities	-8.85432
▁civi	-8.85433
▁having	-8.85434
▁border	-8.85435
▁cross	-8.85436
▁Kong	-8.85436
▁space	-8.85437
▁planning	-8.85437
▁train	-8.85437
▁Northern	-8.85438
▁With	-8.85438
▁short	-8.85442
▁bill	-8.85442
▁sport	-8.85443
▁rider	-8.85444
▁play	-8.85445
▁Hong	-8.85446
▁month	-8.85446
▁falling	-8.85447
▁warning	-8.85448
▁feel	-8.85448
▁big	-8.85452
▁begin	-8.85456
▁death	-8.85456
▁fire	-8.85465
▁cell	-8.8547
▁past	-8.8548
▁lost	-8.85485
▁safety	-8.85508
▁throughout	-8.85509
▁hard	-8.85532
▁relatively	-8.85563
▁visa	-8.85575
89	-8.85597
▁UN	-8.85598
▁variation	-8.85602
▁leg	-8.85614
▁development	-8.85693
▁right	-8.85749
▁think	-8.8575
CE	-8.85756
▁US	-8.8576
▁respect	-8.85955
▁face	-8.85981
▁live	-8.86035
▁eat	-8.86047
▁bow	-8.86102
▁City	-8.86133
▁She	-8.86152
▁tend	-8.86344
▁American	-8.86386
▁young	-8.86747
▁moved	-8.86871
▁greater	-8.86958
ough	-8.90661
▁size	-8.97285
based	-9.03352
L	-9.03357
The	-9.03402
▁affect	-9.04239
ably	-9.04521
▁qui	-9.05285
evolution	-9.05378
establish	-9.05404
▁prim	-9.0541
ified	-9.05429
?	-9.05429
▁802.11	-9.05429
▁Atlantic	-9.05429
▁British	-9.05429
▁First	-9.05429
▁Hospital	-9.05429
▁Internet	-9.05429
▁Kanjar	-9.05429
▁Moldova	-9.05429
▁People	-9.05429
▁Scientists	-9.05429
▁Sundarbans	-9.05429
▁according	-9.05429
▁already	-9.05429
▁bridge	-9.05429
▁campaign	-9.05429
▁chemical	-9.05429
▁citizens	-9.05429
▁civilization	-9.05429
▁cruise	-9.05429
▁customs	-9.05429
▁destination	-9.05429
▁determine	-9.05429
▁energy	-9.05429
▁experiment	-9.05429
▁facilities	-9.05429
▁festival	-9.05429
▁frequen	-9.05429
▁galaxy	-9.05429
▁happen	-9.05429
▁immediate	-9.05429
▁independent	-9.05429
▁insects	-9.05429
▁international	-9.05429
▁little	-9.05429
▁material	-9.05429
▁military	-9.05429
▁nominations	-9.05429
▁outbreak	-9.05429
▁patient	-9.05429
▁radio	-9.05429
▁resources	-9.05429
▁somewhat	-9.05429
▁structure	-9.05429
▁surrounding	-9.05429
▁vehicle	-9.05429
▁website	-9.05429
▁Several	-9.0543
▁ancient	-9.0543
▁continue	-9.0543
▁located	-9.0543
▁question	-9.0543
▁summer	-9.0543
▁terrain	-9.0543
▁elements	-9.0543
▁probably	-9.0543
X	-9.0543
claimed	-9.0543
▁above	-9.0543
▁coloni	-9.0543
▁troop	-9.0543
ology	-9.0543
▁peace	-9.0543
▁regard	-9.0543
▁virtual	-9.0543
▁cycl	-9.0543
▁morning	-9.0543
▁sleep	-9.0543
▁centuries	-9.0543
▁Britain	-9.05431
▁Ocean	-9.05431
▁combine	-9.05431
▁Haiti	-9.05431
▁attack	-9.05431
▁flood	-9.05431
▁percent	-9.05432
▁type	-9.05433
▁earthquake	-9.05433
▁grow	-9.05434
▁Goma	-9.05434
▁Every	-9.05435
▁196	-9.05435
▁carbon	-9.05435
▁idea	-9.05435
▁define	-9.05435
▁charge	-9.05437
▁brain	-9.05437
▁central	-9.05437
▁never	-9.05438
▁fighting	-9.05439
▁aircraft	-9.0544
vention	-9.05441
▁added	-9.05441
▁southern	-9.05443
▁beginning	-9.05443
▁prior	-9.05443
▁failed	-9.05443
self	-9.05445
▁Iran	-9.05445
▁Other	-9.05451
▁book	-9.05451
▁something	-9.05452
▁officers	-9.05452
▁among	-9.05453
▁Shar	-9.05463
▁office	-9.05464
▁differences	-9.05465
▁final	-9.05466
▁turn	-9.05467
▁story	-9.05467
rown	-9.05468
▁practice	-9.0547
▁USA	-9.05474
▁love	-9.05476
▁agree	-9.05479
▁trade	-9.0548
▁Revolution	-9.05481
▁buy	-9.05484
▁court	-9.05484
▁conditions	-9.05488
▁approximately	-9.0549
▁speed	-9.05493
▁music	-9.055
▁sky	-9.05508
protein	-9.05513
▁Ages	-9.0552
▁fear	-9.05522
▁dead	-9.05533
▁social	-9.05549
pire	-9.05561
▁field	-9.05566
▁pay	-9.05568
▁outside	-9.05575
gender	-9.05595
▁however	-9.05597
▁views	-9.05626
▁bomb	-9.05644
▁ships	-9.05652
▁itself	-9.05736
▁rise	-9.05773
▁statement	-9.05796
Japanese	-9.05832
▁researchers	-9.05834
▁react	-9.05933
▁stage	-9.0609
▁rule	-9.06099
▁movement	-9.0611
▁meet	-9.06338
▁West	-9.06345
▁art	-9.0688
ized	-9.07177
▁Asia	-9.1183
▁effect	-9.12507
▁sea	-9.14728
▁plan	-9.22475
▁consider	-9.22816
ught	-9.22859
K	-9.28341
▁equ	-9.2875
▁general	-9.29962
▁drive	-9.29972
▁again	-9.30201
servation	-9.30213
esign	-9.30276
believe	-9.30412
original	-9.30419
▁president	-9.30426
▁perform	-9.30429
district	-9.30429
idespread	-9.30429
nuclear	-9.30429
sibility	-9.30429
ymnastics	-9.30429
–	-9.30429
▁Afghanistan	-9.30429
▁Amazon	-9.30429
▁Ancient	-9.30429
▁Canadian	-9.30429
▁Catalan	-9.30429
▁Central	-9.30429
▁Filipino	-9.30429
▁Hurricane	-9.30429
▁Independence	-9.30429
▁Kingdom	-9.30429
▁Mountain	-9.30429
▁Portuguese	-9.30429
▁Singapore	-9.30429
▁Turkey	-9.30429
▁Virtual	-9.30429
▁Wednesday	-9.30429
▁Yoga	-9.30429
▁Zealand	-9.30429
▁abandon	-9.30429
▁abroad	-9.30429
▁addition	-9.30429
▁approach	-9.30429
▁became	-9.30429
▁bhajan	-9.30429
▁comfortable	-9.30429
▁competitor	-9.30429
▁currency	-9.30429
▁dangerous	-9.30429
▁discovered	-9.30429
▁display	-9.30429
▁easily	-9.30429
▁emergency	-9.30429
▁encourag	-9.30429
▁envelope	-9.30429
▁evidence	-9.30429
▁genetic	-9.30429
▁governor	-9.30429
▁indigenous	-9.30429
▁natural	-9.30429
▁occurred	-9.30429
▁operation	-9.30429
▁option	-9.30429
▁physical	-9.30429
▁previous	-9.30429
▁production	-9.30429
▁province	-9.30429
▁rebuilt	-9.30429
▁referred	-9.30429
▁response	-9.30429
▁saddle	-9.30429
▁school	-9.30429
▁science	-9.30429
▁signed	-9.30429
▁signs	-9.30429
▁suffer	-9.30429
▁television	-9.30429
▁themselves	-9.30429
▁tournament	-9.30429
▁written	-9.30429
▁yesterday	-9.30429
▁2020	-9.3043
▁Sámi	-9.3043
▁Three	-9.3043
▁Valley	-9.3043
▁advance	-9.3043
▁couple	-9.3043
▁drink	-9.3043
▁female	-9.3043
▁further	-9.3043
▁future	-9.3043
▁heavy	-9.3043
▁label	-9.3043
▁policy	-9.3043
▁stretch	-9.3043
▁third	-9.3043
▁agency	-9.3043
▁athlete	-9.3043
▁bound	-9.3043
▁guide	-9.3043
▁management	-9.3043
▁ratio	-9.3043
▁Iraq	-9.3043
▁access	-9.3043
▁serious	-9.3043
▁eastern	-9.3043
▁grammar	-9.3043
▁hotel	-9.3043
▁measure	-9.3043
▁native	-9.3043
▁prompt	-9.3043
▁infection	-9.3043
▁letter	-9.3043
▁ocean	-9.3043
▁Travellers	-9.3043
▁appea	-9.3043
▁entire	-9.3043
▁murder	-9.3043
▁pound	-9.3043
▁winter	-9.3043
▁failure	-9.3043
▁foreign	-9.3043
▁moving	-9.3043
▁sound	-9.3043
▁tiger	-9.3043
▁Police	-9.3043
▁Women	-9.3043
▁distance	-9.3043
▁history	-9.3043
▁kept	-9.30431
▁federal	-9.30431
▁paper	-9.30431
▁deliver	-9.30431
▁improve	-9.30431
▁manager	-9.30431
▁limit	-9.30431
▁lakes	-9.30431
▁unique	-9.30431
Giza	-9.30431
▁habit	-9.30432
▁detail	-9.30432
▁pastries	-9.30432
▁reconstructi	-9.30432
continent	-9.30432
▁remote	-9.30432
▁prevent	-9.30432
▁initiat	-9.30432
▁friend	-9.30433
▁199	-9.30435
▁decide	-9.30435
▁study	-9.30435
▁extend	-9.30436
▁sense	-9.30436
▁watch	-9.30436
Luna	-9.30436
western	-9.30436
▁check	-9.30436
▁complete	-9.30436
▁Italian	-9.30437
▁attract	-9.30437
▁appeared	-9.30438
▁Bush	-9.30438
▁originally	-9.3044
▁12	-9.3044
▁causing	-9.3044
▁nearby	-9.30442
▁clean	-9.30443
▁70	-9.30445
▁Center	-9.30445
▁extra	-9.30445
▁vary	-9.30448
▁thick	-9.30448
▁believed	-9.30449
▁horse	-9.30449
▁Dani	-9.30449
▁Latin	-9.30449
▁comment	-9.30455
storms	-9.30457
▁shop	-9.30462
▁established	-9.30463
▁lack	-9.30473
position	-9.30473
▁wind	-9.30475
▁buildings	-9.30476
socia	-9.30479
▁hour	-9.30484
stance	-9.30485
▁primary	-9.30486
▁Gam	-9.30486
▁rich	-9.30522
▁saw	-9.30524
▁various	-9.30528
ensive	-9.30529
▁save	-9.30537
▁acid	-9.30544
▁sister	-9.30544
▁effective	-9.30545
kind	-9.30547
virus	-9.30547
▁deep	-9.30556
▁eight	-9.30557
▁hostage	-9.30571
▁activity	-9.30587
▁port	-9.3059
▁Their	-9.30594
▁design	-9.30597
▁majority	-9.30601
print	-9.30604
▁36	-9.30634
▁etc	-9.30634
▁everyone	-9.30647
▁tree	-9.30691
vision	-9.30712
▁male	-9.31176
▁arm	-9.3127
unci	-9.32385
cial	-9.33001
ealth	-9.33439
II	-9.35011
▁confirm	-9.51011
ooking	-9.56124
▁organ	-9.56369
▁tradition	-9.60359
▁blog	-9.61562
V	-9.61657
under	-9.61677
U	-9.61698
wide	-9.61702
work	-9.61725
▁learn	-9.62581
▁success	-9.62685
▁serve	-9.62911
▁multi	-9.63257
ield	-9.63596
condition	-9.6366
Z	-9.63738
quake	-9.63756
▁earth	-9.63759
ography	-9.6376
▁Travel	-9.63763
dimension	-9.63763
▁negativ	-9.63763
Dunlap	-9.63763
Original	-9.63763
Oyapock	-9.63763
ecretary	-9.63763
enlightenment	-9.63763
operative	-9.63763
recogniz	-9.63763
rosecution	-9.63763
tirrup	-9.63763
á	-9.63763
▁Around	-9.63763
▁Association	-9.63763
▁Auckland	-9.63763
▁Bishkek	-9.63763
▁California	-9.63763
▁Canada	-9.63763
▁Casablanca	-9.63763
▁Declaration	-9.63763
▁Director	-9.63763
▁Elizabeth	-9.63763
▁Falkland	-9.63763
▁Greenland	-9.63763
▁Harbour	-9.63763
▁Huhne	-9.63763
▁Hydrogen	-9.63763
▁Javanese	-9.63763
▁Kundalini	-9.63763
▁Martelly	-9.63763
▁Mediterranean	-9.63763
▁Morocc	-9.63763
▁October	-9.63763
▁Office	-9.63763
▁Paraguay	-9.63763
▁Philippine	-9.63763
▁Radio	-9.63763
▁Republic	-9.63763
▁Scaffold	-9.63763
▁Schengen	-9.63763
▁Schneider	-9.63763
▁Science	-9.63763
▁Shooters	-9.63763
▁Siminoff	-9.63763
▁Slalom	-9.63763
▁Soviet	-9.63763
▁System	-9.63763
▁Texas	-9.63763
▁Through	-9.63763
▁Tuesday	-9.63763
▁Vatican	-9.63763
▁announcement	-9.63763
▁bacteri	-9.63763
▁beautiful	-9.63763
▁blossom	-9.63763
▁bottom	-9.63763
▁celebrat	-9.63763
▁channel	-9.63763
▁checkpoints	-9.63763
▁collect	-9.63763
▁communication	-9.63763
▁complaints	-9.63763
▁context	-9.63763
▁critical	-9.63763
▁crystals	-9.63763
▁cuisine	-9.63763
▁declined	-9.63763
▁describe	-9.63763
▁determinism	-9.63763
▁difficult	-9.63763
▁digest	-9.63763
▁diplomatic	-9.63763
▁disciplin	-9.63763
▁drugs	-9.63763
▁economic	-9.63763
▁electr	-9.63763
▁elsewhere	-9.63763
▁encounter	-9.63763
▁entrance	-9.63763
▁expressed	-9.63763
▁familiar	-9.63763
▁figure	-9.63763
▁geographic	-9.63763
▁heavily	-9.63763
▁holiday	-9.63763
▁identity	-9.63763
▁influence	-9.63763
▁injuries	-9.63763
▁introduced	-9.63763
▁knowledge	-9.63763
▁medicine	-9.63763
▁mixture	-9.63763
▁movie	-9.63763
▁narrow	-9.63763
▁necessary	-9.63763
▁neglect	-9.63763
▁numerous	-9.63763
▁occasion	-9.63763
▁philosoph	-9.63763
▁policies	-9.63763
▁predecessors	-9.63763
▁principle	-9.63763
▁publish	-9.63763
▁qualit	-9.63763
▁radioactive	-9.63763
▁relationships	-9.63763
▁residents	-9.63763
▁responsibility	-9.63763
▁round	-9.63763
▁rugby	-9.63763
▁sample	-9.63763
▁savanna	-9.63763
▁scientists	-9.63763
▁screaming	-9.63763
▁shuttle	-9.63763
▁software	-9.63763
▁solution	-9.63763
▁somewhere	-9.63763
▁sparsely	-9.63763
▁speaking	-9.63763
▁spectrum	-9.63763
▁subject	-9.63763
▁surface	-9.63763
▁surpris	-9.63763
▁techniques	-9.63763
▁telescope	-9.63763
▁territory	-9.63763
▁trauma	-9.63763
▁vaccine	-9.63763
▁volcano	-9.63763
▁wound	-9.63763
produced	-9.63763
▁Austria	-9.63763
▁Blacks	-9.63763
▁Research	-9.63763
▁absolut	-9.63763
▁apparent	-9.63763
▁laptop	-9.63763
▁opposite	-9.63763
▁peacekeep	-9.63763
▁subsequent	-9.63763
▁GMT	-9.63763
▁Gingrich	-9.63763
▁Swedish	-9.63763
▁achiev	-9.63763
▁ceremon	-9.63763
▁concept	-9.63763
▁except	-9.63763
▁generation	-9.63763
▁killed	-9.63763
▁killing	-9.63763
▁passport	-9.63763
▁pencil	-9.63763
▁photos	-9.63763
▁positive	-9.63763
▁recovered	-9.63763
▁simply	-9.63763
▁warfare	-9.63763
invisible	-9.63763
ortunate	-9.63763
▁2017	-9.63763
▁DNA	-9.63763
▁Foster	-9.63763
▁advice	-9.63763
▁chief	-9.63763
▁criticis	-9.63763
▁despite	-9.63763
▁discuss	-9.63763
▁draft	-9.63763
▁exchange	-9.63763
▁football	-9.63763
▁historic	-9.63763
▁lawsuit	-9.63763
▁next	-9.63763
▁refused	-9.63763
▁selection	-9.63763
▁spread	-9.63763
▁theoretical	-9.63763
▁tracks	-9.63763
▁2010	-9.63763
▁Plants	-9.63763
▁arrange	-9.63763
▁crust	-9.63763
▁reduce	-9.63763
▁strict	-9.63763
▁join	-9.63763
▁mutation	-9.63763
▁tension	-9.63763
rofessor	-9.63763
▁Though	-9.63763
▁concern	-9.63763
▁streets	-9.63763
ception	-9.63764
ethnic	-9.63764
hhappan	-9.63764
▁fashion	-9.63764
violent	-9.63764
▁roughly	-9.63764
▁value	-9.63764
▁Monday	-9.63764
▁rolled	-9.63764
▁rarely	-9.63764
▁rodent	-9.63764
▁General	-9.63764
▁climb	-9.63764
▁taking	-9.63764
▁rotation	-9.63765
▁Saint	-9.63765
▁Finland	-9.63765
▁foot	-9.63765
▁vast	-9.63765
▁ninth	-9.63765
▁Berlin	-9.63765
▁occu	-9.63765
▁upright	-9.63765
▁device	-9.63765
▁rescue	-9.63765
▁Louis	-9.63766
▁binary	-9.63766
▁geography	-9.63766
ancellation	-9.63766
▁levee	-9.63766
▁overcome	-9.63766
▁invad	-9.63767
▁travellers	-9.63767
▁lava	-9.63767
▁metals	-9.63767
▁presidential	-9.63768
▁tribes	-9.63768
▁hope	-9.63769
▁fifth	-9.63769
bugs	-9.63769
fense	-9.6377
▁Korea	-9.6377
▁status	-9.6377
▁honor	-9.63771
▁dollar	-9.63772
Charles	-9.63772
▁1,000	-9.63772
▁draw	-9.63773
▁scene	-9.63773
▁shopping	-9.63774
▁protest	-9.63774
▁stuck	-9.63776
guard	-9.63776
▁title	-9.63776
▁isolate	-9.63777
▁micro	-9.63778
▁items	-9.63778
▁phage	-9.6378
▁price	-9.6378
ression	-9.6378
▁competing	-9.63782
▁baby	-9.63782
▁travelling	-9.63783
▁Old	-9.63783
▁fuel	-9.63785
▁milk	-9.63786
▁anything	-9.63786
▁giant	-9.63787
▁Za	-9.63787
▁Two	-9.63787
▁studie	-9.63788
▁Giant	-9.63788
▁tenth	-9.63788
▁spices	-9.63789
▁superi	-9.63789
,500	-9.63793
▁compared	-9.63793
▁content	-9.63795
▁worst	-9.63795
▁shape	-9.63798
▁pool	-9.63799
▁color	-9.63801
▁paid	-9.63805
▁northern	-9.63812
▁held	-9.63817
▁urine	-9.6382
▁tiny	-9.63823
▁minor	-9.63924
izz	-9.63938
▁flu	-9.63963
▁appl	-9.63984
▁efficient	-9.64266
ultiple	-9.64274
successful	-9.64852
appa	-9.67546
▁Book	-9.69343
itize	-9.76742
confirmed	-9.78356
ground	-10.116
—	-10.1162
which	-10.1174
▁receiv	-10.1284
▁relative	-10.1329
building	-10.1366
difference	-10.1366
▁practi	-10.1366
specially	-10.1374
▁journ	-10.1376
]	-10.1376
ö	-10.1376
abilities	-10.1376
▁collaborat	-10.1376
▁purpose	-10.1376
▁substanti	-10.1376
▁thirteen	-10.1376
$	-10.1376
Australopithecus	-10.1376
METI	-10.1376
Pittsburgh	-10.1376
Timbuktu	-10.1376
[	-10.1376
adjusting	-10.1376
agonways	-10.1376
cognition	-10.1376
diabetic	-10.1376
dioxide	-10.1376
dividing	-10.1376
dministrat	-10.1376
egotiat	-10.1376
essentially	-10.1376
expressions	-10.1376
hundred	-10.1376
interrupted	-10.1376
ologists	-10.1376
oulevard	-10.1376
ppropriate	-10.1376
restricted	-10.1376
specimen	-10.1376
temporary	-10.1376
tification	-10.1376
uberculosis	-10.1376
ymptom	-10.1376
é	-10.1376
í	-10.1376
ó	-10.1376
⁄	-10.1376
▁$100	-10.1376
▁1940	-10.1376
E	-11.0893
¥	-11.1371
“	-11.1372
Q	-11.1373
Y	-11.1374
J	-11.1375
+	-11.1376
°	-11.1376
ú	-11.1376
ü	-11.1376
İ	-11.1376
‘	-11.1376
~	-11.1376
ł	-11.1376
(	-11.1376
Ü	-11.1376
ñ	-11.1376
ă	-11.1376
ğ	-11.1376
ş	-11.1376
