<unk>	0
<s>	0
</s>	0
▁	-2.63641
,	-3.86597
.	-3.92106
s	-5.23745
।	-5.56972
▁the	-5.62928
न	-5.74661
▁के	-5.7846
र	-5.79384
র	-5.79515
्	-5.8452
त	-5.88982
ा	-5.89016
ी	-5.90498
ल	-5.93371
ದ	-5.95026
-	-6.05971
स	-6.08542
क	-6.09447
ের	-6.10128
▁है	-6.12182
ം	-6.12291
▁में	-6.12345
े	-6.13337
ం	-6.13676
ে	-6.17262
e	-6.22157
▁की	-6.24159
ন	-6.2432
ರ	-6.2759
ര	-6.30174
▁of	-6.30562
▁(	-6.33807
t	-6.35033
া	-6.35328
ट	-6.37065
ம்	-6.37472
ി	-6.39255
▁to	-6.39437
▁and	-6.39867
)	-6.40115
▁और	-6.43029
▁से	-6.44294
ि	-6.45831
▁आणि	-6.46327
്	-6.46354
ed	-6.46373
d	-6.48309
্	-6.4883
ಿ	-6.48995
ు	-6.50505
म	-6.52033
o	-6.52842
ों	-6.53403
▁in	-6.53463
ു	-6.53656
n	-6.54363
ो	-6.54466
ने	-6.54664
ं	-6.54763
ு	-6.56848
ು	-6.57558
▁এবং	-6.57651
▁ಮತ್ತು	-6.57654
ర	-6.57934
व	-6.57976
ల	-6.59858
ज	-6.59955
ing	-6.60873
▁a	-6.61163
u	-6.61401
er	-6.61765
ক	-6.62563
ോ	-6.63581
ি	-6.63989
▁को	-6.64074
ू	-6.64561
യ	-6.64784
ला	-6.65038
త	-6.67306
p	-6.67554
ಯ	-6.67903
ु	-6.67972
ত	-6.71193
ർ	-6.713
श	-6.71701
ാ	-6.71719
లు	-6.71956
ह	-6.72147
▁हैं	-6.72193
ర్	-6.72458
a	-6.73114
വ	-6.73616
ನ	-6.74453
േ	-6.74861
▁का	-6.75704
ട	-6.76086
ர	-6.76573
i	-6.76801
ன்	-6.77205
ത	-6.77331
ল	-6.78402
▁एक	-6.78534
य	-6.78572
ো	-6.79201
ய	-6.79625
వ	-6.79659
ಾ	-6.79778
క	-6.79836
മ	-6.80354
స్	-6.80467
கள்	-6.80598
▁"	-6.82573
ి	-6.82689
प	-6.82764
c	-6.82862
സ്	-6.82871
ड	-6.82923
க்க	-6.83312
ಲ	-6.83858
ಸ್	-6.84224
ப	-6.8451
ப்	-6.84837
்	-6.8495
ले	-6.85109
▁மற்றும்	-6.85587
ല	-6.85832
স	-6.86276
ಗಳು	-6.86798
▁మరియు	-6.86827
ன	-6.87032
ட	-6.87076
ೆ	-6.87251
r	-6.87485
ब	-6.87513
ை	-6.88702
ना	-6.88838
্য	-6.88933
െ	-6.8907
സ	-6.91315
▁आहे	-6.91435
▁1	-6.92376
প	-6.92519
లో	-6.9261
ത്	-6.92731
న	-6.93551
க்	-6.94031
▁पर	-6.94196
ന	-6.94198
ता	-6.94361
ക്ക	-6.94828
வ	-6.95184
ప	-6.95478
ವ	-6.96085
▁या	-6.96245
ರ್	-6.96263
ే	-6.96296
▁अ	-6.9798
च्या	-6.98023
క్	-6.98573
ர்	-6.98951
ல	-6.9921
ീ	-6.99348
▁அ	-6.99666
ಸ	-6.99927
ग	-7.00214
ണ	-7.00388
g	-7.00709
वा	-7.01036
द	-7.01171
ద	-7.01843
റ	-7.01846
ో	-7.02471
గా	-7.02809
ని	-7.04075
▁आ	-7.04441
య	-7.04847
ும்	-7.04941
y	-7.05233
▁అ	-7.05609
▁ಆ	-7.0576
ಕ	-7.05762
ా	-7.05866
▁स	-7.05873
च	-7.06245
al	-7.06247
""	-7.08292
l	-7.0857
ण	-7.08895
ா	-7.09173
ব	-7.09466
గ	-7.09914
து	-7.09987
h	-7.10796
▁is	-7.11026
्य	-7.11969
ম	-7.12254
க	-7.12617
ar	-7.12645
ி	-7.12648
ను	-7.13133
ற	-7.14349
টি	-7.14553
ನ್	-7.15872
▁ப	-7.16808
▁പ	-7.17133
▁ഒരു	-7.17416
▁कर	-7.17723
ல்	-7.18263
ಗಳ	-7.18363
ிய	-7.18408
డ	-7.18634
த்த	-7.19125
ಗ	-7.19398
ஸ்	-7.19408
ই	-7.19603
ध	-7.20479
্র	-7.2116
த	-7.2147
ಡ	-7.21505
কে	-7.21709
ట	-7.2171
ൻ	-7.22342
चा	-7.22398
ली	-7.22828
ೋ	-7.22985
ೀ	-7.23025
ക	-7.23055
▁कि	-7.23468
ಗಳನ್ನು	-7.23686
ಂ	-7.24179
ী	-7.24377
ার	-7.24493
or	-7.24892
्या	-7.25353
'	-7.25446
ത്ത	-7.25689
তে	-7.26168
in	-7.26265
री	-7.26696
ీ	-7.27004
য়	-7.27329
ু	-7.27428
ती	-7.27533
న్	-7.28009
ശ	-7.29335
▁ஒரு	-7.29337
ಕ್	-7.30191
ோ	-7.30267
ె	-7.30326
▁করে	-7.30829
ും	-7.3092
रा	-7.31697
▁ब	-7.32219
ತ	-7.33036
▁""	-7.33112
ते	-7.33657
റ്റ	-7.34382
f	-7.35821
ರಿ	-7.35821
പ	-7.36652
ൽ	-7.37068
▁लिए	-7.37327
▁क	-7.38009
▁प	-7.38106
ট	-7.38147
গ	-7.3822
ల్	-7.39887
▁മ	-7.39932
চ	-7.40449
ಟ	-7.41124
தி	-7.41138
▁ప	-7.41215
es	-7.41475
an	-7.418
▁த	-7.42062
్	-7.42234
▁The	-7.42749
▁ക	-7.42967
ష	-7.43267
ॉ	-7.43673
కు	-7.43874
▁ம	-7.43947
ೇ	-7.44332
പ്പ	-7.44649
मध्ये	-7.44662
ങ്ങൾ	-7.45076
ly	-7.45236
রা	-7.45478
िक	-7.45894
ळ	-7.46112
শ	-7.46235
ீ	-7.46314
▁സ	-7.46351
▁ಬ	-7.46444
▁ಹ	-7.46539
▁க	-7.4669
ദ	-7.46902
▁இ	-7.47049
స	-7.47056
್	-7.47233
▁പ്ര	-7.47339
▁আ	-7.4736
ಲು	-7.47959
ம	-7.48331
का	-7.48346
ിയ	-7.48466
b	-7.48783
ित	-7.48984
en	-7.49464
▁जा	-7.49509
ವನ್ನು	-7.49761
k	-7.49764
ின்	-7.49792
ள	-7.4981
ात	-7.50117
▁ந	-7.50381
ரி	-7.50844
्स	-7.51626
ಣ	-7.51942
▁একটি	-7.52598
ವು	-7.53133
▁न	-7.53276
▁ఒక	-7.53506
ச	-7.53629
రి	-7.53705
ూ	-7.53953
▁ஆ	-7.53995
ധ	-7.54028
ರು	-7.54273
ൂ	-7.54308
▁ने	-7.54622
দের	-7.5493
ந்த	-7.55123
▁हो	-7.55348
ட்ட	-7.55397
ವಾಗಿ	-7.55561
▁অ	-7.55789
▁that	-7.56019
ിൽ	-7.56229
ில்	-7.5642
ri	-7.56512
ಲ್	-7.56579
ெ	-7.56782
మ	-7.56799
ಮ	-7.57228
▁हे	-7.5731
m	-7.57475
▁స	-7.57642
ட்	-7.57986
▁ಸ	-7.58066
▁f	-7.58313
▁স	-7.5852
:	-7.59069
ുന്ന	-7.59642
▁are	-7.5973
యా	-7.59872
वर	-7.60037
ங்க	-7.60099
িক	-7.60326
ഗ	-7.60389
▁प्र	-7.60415
ದಲ್ಲಿ	-7.60572
டி	-7.60744
ಯಾ	-7.60966
▁p	-7.60992
0	-7.61176
th	-7.61292
ంగా	-7.61459
चे	-7.62202
▁for	-7.62781
ారు	-7.62994
দ	-7.63043
."	-7.63147
ண	-7.63218
చ	-7.63331
▁যে	-7.63781
ధ	-7.63832
ಪ	-7.63953
▁বা	-7.64554
ಹ	-7.6474
ೊ	-7.64878
▁ग	-7.65479
v	-7.65683
▁be	-7.65735
ಳ	-7.65991
ै	-7.66293
్య	-7.6656
▁भी	-7.66594
িত	-7.6663
रे	-7.66767
జ	-7.67208
ിക്ക	-7.67655
ார்	-7.67923
▁వి	-7.68526
फ	-7.6866
മായ	-7.68732
▁ব	-7.68996
కి	-7.69737
▁হয়	-7.69804
জ	-7.70274
▁म	-7.70277
ാന	-7.70469
▁था	-7.70577
▁ഇ	-7.70725
▁ಪ	-7.70962
▁വി	-7.71069
▁క	-7.7148
ಸಿ	-7.71581
▁यह	-7.71838
ುವ	-7.72134
at	-7.7216
w	-7.72321
▁ఈ	-7.72472
ாக	-7.72481
on	-7.7287
ூ	-7.72905
▁জন্য	-7.72932
le	-7.73236
ே	-7.74197
ട്ട	-7.74308
மை	-7.74496
ന്	-7.74729
ക്	-7.74745
re	-7.75078
ట్	-7.75324
▁re	-7.7624
ধ	-7.76368
▁S	-7.76592
ए	-7.7669
▁ज	-7.76779
▁मा	-7.76798
▁ನ	-7.76802
হ	-7.7688
▁ही	-7.77377
ಧ	-7.77761
▁ಎಂದು	-7.77768
▁வ	-7.77858
பு	-7.78047
తో	-7.78236
ప్	-7.78277
யில்	-7.78341
ഹ	-7.78702
రు	-7.79314
ാൻ	-7.79505
ള	-7.79845
ால்	-7.79919
▁as	-7.8019
▁করা	-7.80304
ची	-7.80306
ून	-7.80668
▁ಈ	-7.80874
st	-7.80956
दा	-7.81136
▁जो	-7.81143
▁যা	-7.812
▁మ	-7.8173
బ	-7.81749
▁नहीं	-7.82227
▁was	-7.82252
मा	-7.82449
வை	-7.8246
ार	-7.83305
▁ಇ	-7.8368
ಚ	-7.84003
്യ	-7.84093
ও	-7.84523
ro	-7.84578
से	-7.84635
ായ	-7.85133
ণ	-7.85294
▁ಮ	-7.85483
ंग	-7.85679
▁బ	-7.85807
த்	-7.86331
▁വ	-7.86346
▁on	-7.86729
it	-7.86758
ರಾ	-7.86766
ड़	-7.8705
▁ಕ	-7.87105
ra	-7.87475
களை	-7.87509
ಕ್ಕೆ	-7.87644
▁ത	-7.87895
ిన	-7.87939
ించ	-7.88095
ख	-7.88269
డి	-7.88459
▁కా	-7.88548
ೂ	-7.88923
ಗೆ	-7.8902
▁ச	-7.89211
ch	-7.89246
ಷ	-7.89923
യിൽ	-7.90163
▁ए	-7.90358
ंड	-7.9036
1	-7.90791
లను	-7.90832
ಲ್ಲಿ	-7.91168
డ్	-7.91225
ಟ್	-7.91281
్ర	-7.91323
ాలు	-7.91899
ಲ್ಲ	-7.92066
ಾಗ	-7.9213
▁वि	-7.92149
▁2	-7.92156
ിച്ച	-7.92156
ഭ	-7.92206
ಡಿ	-7.92324
▁ఎ	-7.92327
ही	-7.92373
மான	-7.92415
▁এই	-7.92575
ణ	-7.93093
▁থেকে	-7.93235
▁ന	-7.93393
ನೆ	-7.93453
ic	-7.93552
ക്ക്	-7.93938
;	-7.93965
ப்பட்ட	-7.93985
▁ച	-7.94125
थ	-7.94245
ൈ	-7.94553
▁by	-7.94787
▁ಪ್ರ	-7.9486
ation	-7.95215
లా	-7.95235
ತ್	-7.95412
டு	-7.95501
भ	-7.95989
ాన్ని	-7.9623
िंग	-7.96285
നി	-7.96638
नी	-7.96709
ll	-7.96849
▁with	-7.96939
▁हा	-7.97322
హ	-7.97398
▁पा	-7.97408
▁యొక్క	-7.97696
യും	-7.9811
್ಯ	-7.98245
ರೆ	-7.98383
ഴ	-7.98426
se	-7.98464
ണ്ട	-7.98561
ಗಳಲ್ಲಿ	-7.98731
▁इ	-7.98987
▁வி	-7.99018
ഡ	-7.99242
▁सं	-7.99405
மாக	-7.99465
▁ఇ	-7.99701
"	-7.99713
లి	-8.00067
te	-8.00158
▁दे	-8.00419
ನ್ನು	-8.00463
▁எ	-8.00496
ಜ	-8.00731
▁होते	-8.00889
▁करने	-8.01123
ಬ	-8.01296
ठ	-8.01546
സി	-8.01638
ent	-8.02215
ച	-8.02419
▁किया	-8.02478
க்கு	-8.02482
വും	-8.02613
के	-8.02619
ది	-8.02912
ജ	-8.03081
வா	-8.03353
ac	-8.03414
ज़	-8.0349
▁इस	-8.03768
ಯು	-8.04624
ഷ	-8.04798
த்தை	-8.0484
▁இந்த	-8.0488
ें	-8.05101
சி	-8.05305
ുകൾ	-8.05357
▁b	-8.05403
कार	-8.05437
ೈ	-8.05471
ce	-8.05703
ান	-8.05831
రా	-8.05922
গুলি	-8.05982
டை	-8.06272
▁അവ	-8.06275
्ट	-8.06417
ಯಲ್ಲಿ	-8.06441
ിന	-8.06521
না	-8.06681
ಯನ್ನು	-8.0669
మైన	-8.06712
ाच्या	-8.06719
▁గ	-8.07079
▁ప్ర	-8.07184
த்தில்	-8.07438
▁फ	-8.07558
ড	-8.07992
▁m	-8.08111
▁सा	-8.08175
ുള്ള	-8.08188
ற்ற	-8.08321
౦	-8.08492
ఫ	-8.08632
ಿಯ	-8.0878
▁ते	-8.0887
क्ष	-8.08872
▁ह	-8.08881
ন্ত	-8.08904
▁তাদের	-8.08985
5	-8.0933
वे	-8.09353
▁না	-8.09567
ಶ	-8.09579
▁என்று	-8.09683
ಭ	-8.09741
▁आहेत	-8.09855
ಲಿ	-8.09916
▁বি	-8.10281
ాల	-8.10525
▁చాలా	-8.1067
ள்	-8.10908
ான	-8.11056
ങ്ങള	-8.11176
టి	-8.11259
ವೆ	-8.11373
us	-8.11418
ನಿ	-8.11434
▁नि	-8.11527
ುತ್ತದೆ	-8.11578
▁లో	-8.1176
েন	-8.11839
त्र	-8.11983
ur	-8.12055
పు	-8.12409
▁ఉన్న	-8.12413
▁এ	-8.12787
ತ್ತ	-8.12885
ತೆ	-8.13044
ers	-8.1333
ാണ്	-8.13343
▁వ	-8.13398
নি	-8.13429
ச்	-8.13453
▁ಮಾಡ	-8.13569
▁ख	-8.13578
▁গ	-8.13695
ায়	-8.1397
ായി	-8.14044
ரா	-8.14045
ங்கள்	-8.14182
களில்	-8.14224
▁अस	-8.14293
കര	-8.14295
ై	-8.1445
▁द	-8.14586
इ	-8.14618
ad	-8.1485
ൾ	-8.14919
▁ഈ	-8.15145
ನಾ	-8.15332
ொ	-8.15796
তা	-8.15801
या	-8.15903
▁എ	-8.15906
సి	-8.15931
▁அல்லது	-8.16005
▁లేదా	-8.16009
▁এটি	-8.16138
S	-8.16161
▁de	-8.16726
सी	-8.17382
ಂದ	-8.17383
മാ	-8.17483
शी	-8.17511
मान	-8.17676
ष	-8.17804
▁किंवा	-8.17848
▁have	-8.17848
ంద	-8.18194
രി	-8.18203
ॅ	-8.18606
ന്ന	-8.18622
ছ	-8.18861
लि	-8.18934
▁st	-8.18982
രാ	-8.1909
बा	-8.19194
ത്തിൽ	-8.19219
ियों	-8.19327
is	-8.19406
▁P	-8.19409
ப்பு	-8.19549
▁ম	-8.19595
ಫ	-8.19661
ভাবে	-8.1967
00	-8.19989
ಟ್ಟ	-8.20273
வி	-8.20297
লে	-8.2057
ിലെ	-8.20582
ழ	-8.20585
ौ	-8.20671
▁अधिक	-8.20678
▁ಅಥವಾ	-8.20678
▁रूप	-8.20678
▁পারে	-8.20697
▁गया	-8.20736
ीय	-8.2095
ವಾ	-8.21416
▁घ	-8.21569
▁প্র	-8.21715
▁ফ	-8.21732
ফ	-8.21798
▁होता	-8.21846
▁B	-8.22077
ई	-8.22107
చే	-8.22142
డానికి	-8.22231
il	-8.2229
▁or	-8.23022
న్న	-8.23256
lo	-8.23259
ులు	-8.23605
et	-8.23767
శ	-8.24082
మా	-8.24186
তি	-8.24292
जी	-8.24443
▁from	-8.24581
टी	-8.24605
മാണ്	-8.24794
ంత	-8.24893
▁న	-8.24951
నే	-8.25109
▁c	-8.25225
பி	-8.25286
নে	-8.25306
▁শ	-8.25325
யை	-8.25402
▁ছিল	-8.25563
ತಿ	-8.25586
▁ಒಂದು	-8.25604
ിന്റെ	-8.25606
বে	-8.25809
ింది	-8.26156
ுவ	-8.26186
ীয়	-8.26221
தை	-8.26378
ক্ষ	-8.26544
▁it	-8.26678
ং	-8.26695
ുന്നു	-8.26813
▁“	-8.26867
स्ट	-8.26876
ంలో	-8.26882
▁সাথে	-8.27182
യാ	-8.27193
▁च	-8.2723
ವಾದ	-8.27353
യുടെ	-8.27534
భ	-8.27568
▁साथ	-8.27656
ഷ്	-8.27757
as	-8.27972
ಮಾ	-8.2809
▁ও	-8.28212
ുക	-8.28393
னை	-8.28406
ಾರ	-8.28513
▁মধ্যে	-8.28683
ச்ச	-8.28759
▁এর	-8.29245
স্ট	-8.29304
▁T	-8.29504
▁not	-8.29633
/	-8.29684
ाने	-8.29941
த்து	-8.29967
▁ജ	-8.30064
ಿತ	-8.30287
▁वे	-8.3033
രു	-8.30366
వా	-8.30404
গুলো	-8.3043
▁नाही	-8.30465
झ	-8.30665
ിച്ചു	-8.30702
”	-8.30737
ಂತ	-8.30835
ച്ച	-8.30984
ాయి	-8.31102
ಗ್	-8.31157
▁आप	-8.31159
കൾ	-8.31291
ంట	-8.31516
मी	-8.31947
▁பல	-8.31953
റി	-8.32069
▁பிர	-8.32089
খ	-8.32133
াই	-8.32244
கை	-8.32255
கா	-8.32285
টা	-8.3232
ലി	-8.3263
▁w	-8.32638
த்தின்	-8.3305
▁करते	-8.33088
லி	-8.33096
తి	-8.33342
ल्या	-8.34015
▁চ	-8.34153
దు	-8.34221
ಿದೆ	-8.34242
▁பா	-8.34601
ಪ್	-8.34634
ಿನ	-8.34669
ത്തെ	-8.34818
ము	-8.35032
▁পা	-8.35119
ளி	-8.35247
▁ಎ	-8.35297
ive	-8.35773
फ़	-8.35841
லை	-8.35881
▁ಜ	-8.35917
వి	-8.35919
ँ	-8.36134
▁ನಿ	-8.3645
മായി	-8.3697
ానికి	-8.36998
▁ಹಾ	-8.3704
▁உள்ள	-8.37066
ുകള	-8.37163
▁were	-8.37311
▁रो	-8.37433
ಡ್	-8.37499
ಿಗೆ	-8.37739
N	-8.38221
ബ	-8.38264
கி	-8.38302
द्ध	-8.38423
▁their	-8.38435
▁হয়েছিল	-8.38442
ഡ്	-8.38508
▁கொண்ட	-8.38641
িয়ে	-8.38748
താ	-8.38771
▁can	-8.38831
▁ఉ	-8.3922
▁மு	-8.3934
ಲಾ	-8.39852
ില	-8.39941
தா	-8.39958
िय	-8.40174
ೆಯ	-8.40262
ొ	-8.40331
▁ബ	-8.40362
ൊ	-8.40653
▁at	-8.40702
▁अनेक	-8.40746
▁నుండి	-8.40748
‍	-8.40759
▁थी	-8.40776
▁ని	-8.40935
ಿಕ	-8.4096
ाई	-8.4103
id	-8.41462
கள	-8.4157
പ്പെട്ട	-8.41582
टा	-8.41684
▁করতে	-8.41968
▁সা	-8.42287
▁তার	-8.42315
▁थे	-8.42339
▁എന്ന	-8.42723
ண்ட	-8.43034
▁ఇది	-8.43163
▁काही	-8.43316
ಪಾ	-8.43353
▁ರ	-8.43498
▁5	-8.43561
డం	-8.43648
▁ವಿ	-8.43899
▁ತ	-8.43997
মি	-8.4402
▁జ	-8.44035
डी	-8.44036
am	-8.441
गे	-8.44146
ങ്ങ	-8.44269
নের	-8.44666
ಕಿ	-8.44667
ാം	-8.45006
লি	-8.4514
ate	-8.45224
யின்	-8.45426
ಾದ	-8.45437
ষ	-8.45521
णे	-8.45534
▁कुछ	-8.45539
யான	-8.45564
ത്തിന്റെ	-8.45631
▁त्या	-8.45668
▁করার	-8.46173
▁ক	-8.46215
ದ್ದ	-8.46327
खा	-8.4642
▁মা	-8.46476
▁ಚ	-8.46484
▁व	-8.4659
▁ഫ	-8.46621
▁এক	-8.46762
ঁ	-8.46768
రో	-8.46861
▁t	-8.47058
▁"""	-8.47172
▁तो	-8.47278
िन	-8.4732
age	-8.47506
ரு	-8.47644
ातील	-8.47674
ക്ഷ	-8.4768
▁you	-8.47919
ts	-8.47946
വര	-8.47979
ப்பட	-8.48
ൺ	-8.48021
▁కూడా	-8.48021
▁केले	-8.48345
li	-8.48551
సా	-8.48559
▁काम	-8.48589
ాన	-8.48616
పై	-8.48892
▁వే	-8.49187
ढ	-8.4928
▁जाता	-8.49365
▁तक	-8.49505
).	-8.49614
ిక	-8.49633
▁হ	-8.49725
ಟಿ	-8.49846
पा	-8.50138
ந்து	-8.5029
னி	-8.50431
కా	-8.50475
களின்	-8.50616
வு	-8.50838
ഗ്	-8.50904
ড়	-8.51154
য	-8.51177
ve	-8.51276
ण्या	-8.51474
ுக்கு	-8.51484
மி	-8.51511
▁कई	-8.51974
డు	-8.52053
ுகிறது	-8.52721
തിര	-8.52766
▁ഒ	-8.52903
మ్	-8.52977
రీ	-8.53033
z	-8.53183
▁ನೀಡ	-8.53185
ിക	-8.53264
▁ಶ	-8.53369
▁ज्या	-8.53396
गी	-8.53732
▁होती	-8.53767
ment	-8.54047
िया	-8.5405
नि	-8.54147
▁an	-8.54196
भा	-8.54444
వచ్చు	-8.54507
ಕೆ	-8.54549
ಗಳಿಗೆ	-8.54604
▁இது	-8.54763
▁सु	-8.54803
াম	-8.5484
▁l	-8.54842
▁ಸಾ	-8.54892
ന്ത	-8.54897
िस	-8.54912
ింగ్	-8.54958
বি	-8.54963
दी	-8.55022
▁সময়	-8.55207
कर	-8.55587
களுக்கு	-8.55809
▁ಇದು	-8.55869
ಾಗಿ	-8.55981
ओं	-8.56072
ির	-8.56146
ಬಹುದು	-8.56519
சா	-8.5659
ंस	-8.56731
▁দ	-8.56808
▁4	-8.56831
ാവ	-8.56882
ul	-8.56882
साठी	-8.56938
ओ	-8.56945
मो	-8.57056
ास	-8.57111
▁सर्व	-8.57188
▁con	-8.57188
▁लेकिन	-8.57238
व्ह	-8.57262
▁तरह	-8.57318
ാര	-8.57483
▁ഓ	-8.57506
ുവ	-8.57517
ലാ	-8.57666
ಮ್	-8.57728
াল	-8.57841
യോ	-8.5823
ಿದ	-8.58254
▁নি	-8.58283
জি	-8.58366
▁കാ	-8.58393
সি	-8.58408
ుకు	-8.58505
▁ಗ	-8.5862
லா	-8.58896
ाव	-8.59257
▁উপ	-8.59406
க்கும்	-8.59475
ಕೊ	-8.59862
ഡി	-8.6003
ഥ	-8.60035
▁কিছু	-8.60035
▁अपने	-8.60036
el	-8.60293
മ്പ	-8.60427
বা	-8.60431
▁అని	-8.60452
কার	-8.60649
ंद	-8.6072
ില്ല	-8.60886
▁ই	-8.61036
▁200	-8.61353
ಥ	-8.61355
ছিল	-8.61422
ಖ	-8.61463
▁उत्तर	-8.61464
স্ত	-8.61555
▁ನಲ್ಲಿ	-8.6158
யாக	-8.61601
▁যায়	-8.61622
వు	-8.61723
की	-8.61935
▁ഹ	-8.62044
िल	-8.62072
▁கா	-8.62257
நா	-8.62556
▁কি	-8.62608
പ്	-8.62687
▁വാ	-8.62717
ിത	-8.62747
యం	-8.628
▁बाद	-8.6295
ాలను	-8.63183
ல்ல	-8.63238
ne	-8.63426
ದೆ	-8.63536
ಂಗ	-8.63856
ವಾಗ	-8.63913
ிக்க	-8.64106
വേ	-8.64198
জন	-8.64219
ূ	-8.6438
ళ	-8.64383
▁which	-8.64384
▁वापर	-8.64384
ിലേക്ക്	-8.64392
▁has	-8.64418
▁स्ट	-8.64562
4	-8.64588
ുകയും	-8.64643
▁देश	-8.64709
▁ഗ	-8.64741
ाचे	-8.6481
జా	-8.6504
▁जे	-8.65045
▁po	-8.6524
ಿಂದ	-8.6529
▁ஏ	-8.65364
േഷ	-8.65409
▁ಕಾ	-8.65451
ുന്നത്	-8.65648
ಗು	-8.65683
చి	-8.65741
ుల	-8.65752
మి	-8.65801
if	-8.65823
▁కలిగి	-8.6586
ঘ	-8.65875
▁ತಮ್ಮ	-8.65876
▁त्यांच्या	-8.65876
▁सकता	-8.65877
▁ఉంది	-8.65889
▁கு	-8.65898
এ	-8.65959
▁ഇത്	-8.66004
स्थ	-8.66006
mo	-8.66105
రణ	-8.66166
▁जाते	-8.66178
▁they	-8.66179
▁In	-8.66411
तील	-8.66498
ஸ	-8.66514
ஜ	-8.66539
বার	-8.66602
హా	-8.66632
ற்	-8.66757
गा	-8.66864
లకు	-8.66872
கோ	-8.6688
ದೇ	-8.66918
▁പാ	-8.67038
ाचा	-8.67326
ക്കും	-8.67331
▁di	-8.67387
വാ	-8.67483
▁किसी	-8.67508
ിട	-8.67714
ിന്	-8.67845
దా	-8.67869
▁दो	-8.6796
ാല	-8.68093
மா	-8.68181
ய்	-8.68207
▁খ	-8.68444
లోని	-8.68625
▁F	-8.68687
েল	-8.68746
▁बन	-8.68791
ഞ്ഞ	-8.68919
▁ఉంటుంది	-8.6893
ೌ	-8.6893
▁എന്നിവ	-8.68933
ುತ್ತಾರೆ	-8.6894
▁তবে	-8.68943
▁சில	-8.68961
தாக	-8.68985
प्	-8.69001
ండ	-8.69102
ight	-8.69152
வே	-8.6919
నా	-8.69277
ನೇ	-8.69351
▁15	-8.69492
▁செய்ய	-8.69602
ತು	-8.69741
യിലെ	-8.69973
ല്ല	-8.70073
ത്ത്	-8.70134
ுடன்	-8.7022
ైన	-8.70257
াস	-8.70323
ವಾಗಿದೆ	-8.70387
ಯೋ	-8.70422
▁அவர்	-8.7047
▁म्हणून	-8.70492
▁রয়েছে	-8.70492
▁other	-8.70493
▁शहर	-8.70494
▁হয়েছে	-8.70503
லாம்	-8.70685
ांच्या	-8.70905
▁G	-8.71064
ಿಲ್ಲ	-8.71238
▁मिल	-8.71389
വർ	-8.71772
ies	-8.71906
▁सि	-8.72028
জা	-8.72088
ണം	-8.72113
முறை	-8.72148
▁लोगों	-8.7217
▁ये	-8.72179
▁ಅವರು	-8.722
ity	-8.72264
ವಿ	-8.72357
সে	-8.72388
ंट	-8.72987
▁कम	-8.73154
িং	-8.73526
മി	-8.73528
▁তা	-8.73534
ட்டு	-8.7366
▁நி	-8.73692
▁सकते	-8.73693
মা	-8.73707
ांना	-8.73875
பெ	-8.74195
▁so	-8.7421
घ	-8.74698
तात	-8.74794
ബ്	-8.74815
ঙ্	-8.75291
১	-8.75332
▁অনেক	-8.75332
▁वाले	-8.75376
▁పా	-8.75479
టా	-8.75777
பா	-8.75841
கு	-8.76155
வது	-8.76168
ಬ್	-8.76199
▁కు	-8.7651
னர்	-8.76741
ावर	-8.76845
ry	-8.76897
▁co	-8.76902
০	-8.76999
▁അവരുടെ	-8.76999
▁but	-8.76999
ಳ್ಳ	-8.77005
त्या	-8.77019
est	-8.77036
▁कारण	-8.77055
▁कहा	-8.77073
യാണ്	-8.77074
ುತ್ತವೆ	-8.77171
▁ಸಹ	-8.77177
வர்	-8.7722
▁പരി	-8.77244
▁സ്	-8.77446
ിനെ	-8.7761
ార్	-8.77679
पासून	-8.77783
ion	-8.77943
த்தி	-8.77955
യി	-8.78121
pro	-8.78292
मुळे	-8.78415
▁చ	-8.78439
ುವುದು	-8.78504
রে	-8.7852
▁स्थान	-8.78634
णाऱ्या	-8.78693
▁बहुत	-8.78693
▁ചില	-8.78707
ங்களை	-8.78719
▁ఉన్నాయి	-8.78742
▁मु	-8.78825
▁100	-8.78872
▁ఏ	-8.78896
▁समय	-8.78939
ಕು	-8.7911
tic	-8.79296
▁তারা	-8.79472
ഫ	-8.79661
തു	-8.79898
ng	-8.799
▁వారి	-8.79944
ছে	-8.80095
ंत	-8.80322
ge	-8.80405
▁ಒ	-8.80413
థ	-8.80418
▁will	-8.80418
▁ஆனால்	-8.80418
▁सबसे	-8.80418
णी	-8.8042
▁మీరు	-8.80459
टर	-8.805
▁he	-8.80585
▁been	-8.80592
▁करता	-8.80645
ిత	-8.80811
▁असे	-8.80824
ांनी	-8.8084
బ్	-8.81056
ரை	-8.81203
▁రా	-8.81294
ಿಂಗ್	-8.8132
▁അത	-8.81361
न्स	-8.81412
tion	-8.81629
▁one	-8.81996
▁W	-8.82117
ദേശ	-8.82172
▁ఇంకా	-8.82185
ಂಡ	-8.82224
வர	-8.82335
മുള്ള	-8.82424
పర	-8.82526
ின	-8.82583
போது	-8.82796
▁मि	-8.82813
▁रहे	-8.8309
▁மே	-8.83179
▁మీ	-8.83225
▁சு	-8.83373
▁रह	-8.8346
ण्यासाठी	-8.83492
ಾರ್	-8.83504
ற்று	-8.83513
ಿಕೆ	-8.83731
आ	-8.83786
▁என	-8.83906
im	-8.83942
ఖ	-8.83958
▁दक्षिण	-8.83958
▁ద్వారా	-8.83958
▁மேலும்	-8.83958
मधील	-8.83958
▁भाग	-8.83963
▁কোনও	-8.83987
▁इतर	-8.83998
▁ಮೇಲೆ	-8.84001
ോട്ട	-8.84005
▁यु	-8.84028
▁do	-8.84123
ेल	-8.84402
কা	-8.8446
▁వె	-8.84582
ಜಿ	-8.84706
স্ক	-8.84762
থ	-8.84799
ాడు	-8.84822
▁ஹ	-8.84885
om	-8.85014
ನು	-8.85075
um	-8.85083
▁வர	-8.85163
ಗಿ	-8.85178
▁ഡ	-8.85274
ver	-8.85441
▁জ	-8.85498
▁హ	-8.8551
ಕರ	-8.85623
म्	-8.85726
িন	-8.85775
▁पहले	-8.85777
▁this	-8.85783
ದಿಂದ	-8.85815
▁bo	-8.85832
▁இருக்கும்	-8.85835
▁un	-8.85876
ஷ	-8.85894
▁साम	-8.8605
▁sp	-8.86116
ങ്ങളിൽ	-8.8613
▁శ	-8.86199
हा	-8.86308
लो	-8.86358
▁It	-8.86383
ികൾ	-8.86581
றி	-8.86792
▁स्व	-8.86855
ಮಿ	-8.86889
யா	-8.86933
లలో	-8.86958
োর	-8.87013
ील	-8.87027
▁কর	-8.87092
പ്ര	-8.87101
वार	-8.87122
▁fa	-8.87443
▁ಅವರ	-8.87452
▁போ	-8.87457
पूर्ण	-8.87625
▁শুরু	-8.87628
▁அதிக	-8.87648
our	-8.87689
ष्ट	-8.87697
▁భ	-8.87706
ுக்க	-8.87782
▁10	-8.87908
."""	-8.87909
डे	-8.88039
్ల	-8.88583
▁മു	-8.88827
▁পরি	-8.88963
▁সে	-8.89063
▁people	-8.89515
▁परंतु	-8.89515
▁মতো	-8.89515
▁നിന്ന്	-8.89516
▁ಎಂಬ	-8.89518
▁என்பது	-8.89566
▁ca	-8.89872
2	-8.89884
ந	-8.89898
ఫ్	-8.89995
▁होने	-8.90072
ിംഗ്	-8.9009
ক্ত	-8.90199
ಮೆ	-8.90342
ांमध्ये	-8.90478
▁C	-8.90785
""""	-8.90798
भर	-8.90838
வும்	-8.91051
▁ಬಾ	-8.91057
प्र	-8.91095
▁D	-8.91128
▁केली	-8.91205
കള	-8.91365
▁ഏറ്റവും	-8.91438
▁अन्य	-8.91439
▁दिया	-8.9149
ட்டி	-8.915
ைக்	-8.91502
▁असते	-8.91582
ोर	-8.91582
ிருந்த	-8.91829
को	-8.91926
▁கால	-8.92015
కొ	-8.92051
P	-8.9209
▁അത്	-8.92109
ীর	-8.92121
ുണ്ട്	-8.92164
മോ	-8.92196
व्या	-8.92344
ോള	-8.92515
पे	-8.9255
జ్	-8.926
▁सम	-8.92614
़	-8.92698
കു	-8.92701
ப்பி	-8.92769
নো	-8.93097
കാര	-8.93134
ಿಸಿದ	-8.93342
▁बना	-8.93395
▁பகுதி	-8.93398
▁போன்ற	-8.93398
▁നൽക	-8.93399
▁பயண	-8.93399
▁more	-8.93403
▁ಬಳಸ	-8.93405
▁மிகவும்	-8.9341
দা	-8.93437
र्ड	-8.93441
▁ಪ್ರತಿ	-8.93477
र्स	-8.93497
ാൽ	-8.93503
land	-8.93508
ென்	-8.93526
স্থ	-8.93558
गर	-8.93567
▁पै	-8.9361
யோ	-8.93847
ர்கள்	-8.93878
মান	-8.93898
mi	-8.93968
▁करना	-8.9401
▁फ़	-8.94034
ల్లో	-8.94148
▁আর	-8.94168
ist	-8.94728
ಿದರು	-8.94751
ಿಸುವ	-8.9479
കാല	-8.94893
ud	-8.94936
ওয়া	-8.95102
▁ಹೇಳ	-8.95385
▁ಅನ್ನು	-8.95398
▁ಕೆಲವು	-8.95398
▁also	-8.95399
ೀಯ	-8.95402
യ്ക്ക്	-8.95535
ങ്ങളും	-8.95556
▁చేయ	-8.95568
▁11	-8.95691
यर	-8.95702
▁तरी	-8.9574
ally	-8.95836
ाला	-8.95867
तर	-8.95922
▁ति	-8.95961
ಜಾ	-8.96026
▁पो	-8.9615
▁கி	-8.9618
ுள்ள	-8.96492
▁शा	-8.96666
ಿದ್ದಾರೆ	-8.96725
ting	-8.96842
▁ನಂತರ	-8.97439
▁ಆದರೆ	-8.9744
▁ప్రతి	-8.97504
▁25	-8.9753
▁হতে	-8.97569
യെ	-8.97584
▁कोई	-8.9772
ట్లు	-8.97747
▁सह	-8.97906
క్ర	-8.9795
ങ്ക	-8.9809
ടി	-8.98156
റ്റ്	-8.98214
ರೂ	-8.98255
நிலை	-8.98284
వీ	-8.9833
।"	-8.98677
വ്	-8.98765
യുള്ള	-8.9899
క్క	-8.99074
▁হল	-8.99095
ವೇ	-8.99114
লো	-8.9941
ড়া	-8.99443
▁रख	-8.99464
িয়া	-8.99467
ൃ	-8.99522
▁शामिल	-8.99522
െങ്കിലും	-8.99523
▁অনু	-8.99523
▁ఇతర	-8.99526
▁থাকে	-8.99526
▁स्थित	-8.99529
▁নিয়ে	-8.99568
▁అనేక	-8.9959
▁may	-8.99615
▁প্রায়	-8.99641
ure	-8.99649
ിക്കുന്നു	-8.99713
▁मै	-8.99738
താണ്	-8.99811
ంగ	-8.99814
र्म	-8.99864
மீ	-9.00004
▁ಮು	-9.00004
day	-9.0004
▁'	-9.00234
சே	-9.00648
D	-9.00852
গা	-9.01182
టర్	-9.01554
ృ	-9.0165
▁ব্যবহার	-9.0165
▁হিসাবে	-9.0165
▁நீங்கள்	-9.0165
▁ನೀವು	-9.0165
▁എല്ലാ	-9.01651
▁വലിയ	-9.01654
▁দিয়ে	-9.01693
ाची	-9.01696
ಫ್	-9.01796
▁কাজ	-9.01841
ডি	-9.01854
ಜ್	-9.02325
तो	-9.02328
ಂಬ	-9.02541
ಿದ್ದ	-9.02549
▁পর	-9.02606
L	-9.02688
ुल	-9.02836
யி	-9.02837
les	-9.02954
শ্	-9.02976
ಸು	-9.0313
अर	-9.03213
ामध्ये	-9.03355
▁প্রতি	-9.03777
ഞ്ച	-9.03824
०	-9.03824
▁वर्ष	-9.03824
▁আপনি	-9.03824
▁गई	-9.03947
ಯಾಗ	-9.03983
▁गए	-9.04019
ant	-9.04078
▁कै	-9.0414
▁20	-9.04166
ைப்	-9.04274
av	-9.04527
me	-9.04536
ుతుంది	-9.04577
റെ	-9.04586
▁হয়ে	-9.04622
ாத	-9.04671
ou	-9.04821
कडे	-9.05008
ಯೂ	-9.05065
తా	-9.05107
కీ	-9.05242
ta	-9.05254
▁लोक	-9.05295
ையும்	-9.05362
C	-9.05559
अ	-9.05561
ക്കാര	-9.05574
ಚ್	-9.05638
ിക്കുന്ന	-9.0567
▁ex	-9.05918
▁கூட	-9.06031
▁కొన్ని	-9.06046
nt	-9.06048
ండి	-9.06052
▁यांनी	-9.06057
▁some	-9.06063
▁സാ	-9.06072
▁మంది	-9.06084
▁হা	-9.06157
▁sh	-9.0619
वी	-9.06323
ियन	-9.06406
▁বলে	-9.0641
▁వా	-9.06464
▁घर	-9.06544
য়ে	-9.06602
▁ಹೆಚ್ಚು	-9.0672
बर	-9.0697
▁तर	-9.06977
ಿತು	-9.0704
చ్	-9.07067
ous	-9.07255
ஆம்	-9.07656
▁छ	-9.07744
र्क	-9.07777
മാർ	-9.07787
▁ചെയ്യ	-9.0788
ण्यात	-9.07976
कल	-9.07983
మాన	-9.08128
য়ার	-9.0813
ti	-9.08159
ha	-9.08167
த்திற்கு	-9.08194
ెట్	-9.08206
ಹು	-9.08248
▁जिस	-9.08307
்ட	-9.0831
▁బా	-9.08313
ിലൂടെ	-9.08319
▁द्वारा	-9.08319
▁ಅರ	-9.08319
▁மிக	-9.08321
▁कार्य	-9.08337
▁ಇತರ	-9.08342
▁had	-9.08345
▁सामान्य	-9.08352
▁করেছে	-9.08418
▁शकतात	-9.08421
ಿರುವ	-9.08593
▁কম	-9.08726
▁அந்த	-9.08751
▁ಸಂ	-9.0879
ിക്കാൻ	-9.08804
▁असा	-9.09041
ரோ	-9.09131
▁ಸ್ವ	-9.09183
ম্প	-9.09302
▁विशेष	-9.09309
ಕ್ಕ	-9.09433
টির	-9.09434
▁விட	-9.0951
▁ट्र	-9.09575
▁वह	-9.09611
▁இரண்டு	-9.09936
▁गा	-9.10092
ించడం	-9.10259
▁अं	-9.10323
ാനും	-9.10436
▁সম	-9.10575
▁ഉപ	-9.10645
ഘ	-9.10645
▁বছর	-9.10645
▁उप	-9.10648
▁पूर्व	-9.10656
▁all	-9.10681
▁বেশি	-9.10702
▁থাকা	-9.10771
ത്തിന്	-9.10781
ള്ള	-9.10822
▁फिर	-9.10841
way	-9.10892
త్త	-9.11001
▁വെ	-9.1107
▁কা	-9.11161
and	-9.11201
ക്കി	-9.11217
వర్	-9.11227
▁জন	-9.11392
▁देखील	-9.11485
▁চা	-9.11635
ंना	-9.11646
▁நிற	-9.11659
▁आले	-9.11696
റോ	-9.11774
ಪಿ	-9.11853
▁केला	-9.12027
ाइन	-9.1208
ಸ್ಟ	-9.12107
ಷ್ಟ	-9.12126
▁प्रति	-9.12278
ga	-9.12411
णार	-9.12412
king	-9.12816
▁நேர	-9.12967
▁ज़्यादा	-9.13011
ൗ	-9.13025
?	-9.13026
▁उनके	-9.13026
▁मार्ग	-9.13026
▁பெரிய	-9.13026
▁வழங்க	-9.13026
▁ಅದು	-9.13026
▁അല്ലെങ്കിൽ	-9.13026
▁ಹೆಚ್ಚಿನ	-9.13031
▁त्यांना	-9.13049
வில்லை	-9.13051
able	-9.13052
▁হবে	-9.13083
లేదు	-9.13101
ay	-9.13102
▁কোন	-9.13159
▁সালে	-9.13171
রু	-9.13204
ష్	-9.13496
ెన్	-9.13546
▁తన	-9.1361
▁पुर	-9.13631
পি	-9.13635
യ്ക്ക	-9.13668
▁शे	-9.13676
▁அது	-9.13741
ವರ್	-9.13915
গুলির	-9.13925
ಟರ್	-9.14171
▁இருந்த	-9.14208
পু	-9.14307
▁बे	-9.14369
ാസ	-9.14548
வான	-9.14576
ழு	-9.14609
▁१	-9.14659
జి	-9.14756
ുമായി	-9.14859
O	-9.15092
▁കുറ	-9.15162
▁கொ	-9.15236
ബോ	-9.15356
!	-9.15465
▁अपनी	-9.15465
▁அதன்	-9.15465
▁ಕೂಡ	-9.15466
▁வழி	-9.15467
▁most	-9.1547
▁who	-9.15471
ப்படுத்த	-9.15508
▁আরও	-9.15514
▁তিনি	-9.15521
న్స్	-9.15544
▁शक	-9.15569
▁தனி	-9.15603
తాయి	-9.15605
▁लाग	-9.1575
▁बि	-9.1579
பர	-9.15807
▁அவை	-9.15818
▁என்ற	-9.15824
T	-9.15889
ണ്	-9.15969
ప్పుడు	-9.1604
ian	-9.16139
▁his	-9.1618
▁इसे	-9.16277
▁जाने	-9.16357
്യൂ	-9.16505
▁I	-9.16505
्रो	-9.16514
ப்பட்டது	-9.16562
od	-9.1663
టీ	-9.1665
നോ	-9.16663
ലെ	-9.16991
▁गो	-9.17009
െന്ന്	-9.17031
കളും	-9.17056
▁நகர	-9.1717
▁मध्य	-9.172
ിച്ച്	-9.17271
▁चल	-9.17288
গত	-9.17342
▁ഇത	-9.17502
ന്റെ	-9.17648
▁उस	-9.17688
ेस	-9.17748
▁R	-9.17764
▁car	-9.17827
ುವುದ	-9.17848
▁സ്റ്റ	-9.17861
ৎ	-9.17965
▁తరువాత	-9.17965
▁വളരെ	-9.17965
▁দেখা	-9.17965
▁కానీ	-9.17965
▁time	-9.17967
▁ಹಾಗೂ	-9.17974
ೆಂದರೆ	-9.1798
বল	-9.17987
▁আগে	-9.17997
ങ്ങളുടെ	-9.18
▁হওয়ার	-9.18093
ಶ್	-9.18101
▁உள்ளது	-9.18153
படி	-9.1821
തും	-9.18273
ಲಾಗಿದೆ	-9.1829
్యూ	-9.18323
▁साल	-9.18498
▁कमी	-9.18593
ांचा	-9.18855
▁ഉണ്ടാ	-9.18967
వే	-9.18991
ated	-9.191
ిస్తుంది	-9.19197
ുടെ	-9.19209
▁ಪ್ರದೇಶ	-9.19233
হার	-9.19234
▁ബാ	-9.19268
வில்	-9.19269
ানো	-9.19396
▁its	-9.19463
लेल्या	-9.19514
दार	-9.19533
য়া	-9.19612
▁K	-9.20258
ிற்கு	-9.20267
ಮೀ	-9.20282
फा	-9.20287
▁मे	-9.20298
▁एका	-9.20363
▁लोग	-9.20391
সার	-9.20426
▁പി	-9.20471
ৌ	-9.20528
▁802.11	-9.20529
▁তৈরি	-9.20529
▁ఉంటాయి	-9.20529
▁ആവശ്യ	-9.20529
▁കൂടാതെ	-9.20529
▁जैसे	-9.20529
▁असलेल्या	-9.20574
▁many	-9.20583
▁மக்கள்	-9.20595
▁ఉండే	-9.20609
▁করেছিল	-9.20621
▁राज्य	-9.20621
ிலும்	-9.20637
▁கே	-9.20805
্স	-9.20842
mb	-9.20853
वाद	-9.20872
▁దాని	-9.21038
ಲೂ	-9.211
നെ	-9.21108
▁आज	-9.21384
ிங்	-9.21636
ೋಲ	-9.21677
ുകളിൽ	-9.21853
ಯೇ	-9.21883
▁लग	-9.225
ట్ట	-9.22608
ंक	-9.22764
വല	-9.22765
ಸೆ	-9.22962
ಗಳಿಂದ	-9.2301
ऊ	-9.23049
▁झाले	-9.23141
▁प्रत्येक	-9.2316
▁ಅದರ	-9.2316
▁two	-9.2316
▁हुए	-9.2316
▁बदल	-9.23186
▁दूर	-9.23187
▁తమ	-9.23209
▁ಮೂಲಕ	-9.23213
▁शकते	-9.23232
▁ಜನರು	-9.23262
एँ	-9.23262
▁करण्यासाठी	-9.23277
ப்படும்	-9.23348
ಸ್ಥ	-9.23356
▁ಗಾ	-9.2341
▁त्याच्या	-9.23433
स्प	-9.23558
▁कॉ	-9.23642
ary	-9.23686
কাল	-9.23881
▁స్వ	-9.24026
ಕ್ರ	-9.24178
ంది	-9.24204
▁no	-9.24258
▁উপর	-9.24354
▁എന്ന്	-9.24464
தில்	-9.24543
ുകളും	-9.2455
▁கட்ட	-9.24676
▁পরে	-9.24727
▁there	-9.24789
one	-9.24793
ുന്നതിന്	-9.24864
▁इन	-9.24908
ice	-9.25087
▁കോ	-9.25248
▁हम	-9.25451
ವಾರ	-9.25453
കളെ	-9.25534
▁क्षेत्र	-9.25713
▁অ্যা	-9.2584
ப்படுகிறது	-9.2585
যুক্ত	-9.25862
বিশেষ	-9.25863
▁অঞ্চল	-9.25863
▁উত্তর	-9.25863
▁ಬಗ್ಗೆ	-9.25863
▁महिला	-9.25867
▁new	-9.25869
j	-9.25941
మే	-9.25959
▁নয়	-9.25966
ence	-9.26141
ന്ന്	-9.2621
ন্দ	-9.2631
ಂತೆ	-9.26325
কারী	-9.26397
▁ക്ര	-9.26723
പ്പ്	-9.26871
▁जाती	-9.26937
െയും	-9.27125
▁करू	-9.27221
ವರ	-9.27358
ಕೋ	-9.27459
ாளர்	-9.27665
ుకో	-9.27736
ജി	-9.27922
ാക	-9.27952
▁প্রা	-9.27958
करण	-9.28069
▁ఉండ	-9.28116
ांची	-9.28535
द्वारे	-9.28641
ஞ்ச	-9.28641
ಬೇಕು	-9.28641
▁उपयोग	-9.28641
▁দ্বারা	-9.28641
▁കൂടുതൽ	-9.28641
▁మధ్య	-9.28641
▁অন্য	-9.28642
▁చిన్న	-9.28644
▁like	-9.28646
ாலும்	-9.2866
नुसार	-9.28664
ುವುದಿಲ್ಲ	-9.28666
ಿರುತ್ತದೆ	-9.28682
▁కంటే	-9.2869
ொரு	-9.28706
▁असतात	-9.28712
▁മറ്റ്	-9.28737
ুক	-9.28765
களைப்	-9.29079
▁కో	-9.29156
స్తుంది	-9.29232
▁करतात	-9.29234
▁పరి	-9.29352
पेक्षा	-9.29442
െന്ന	-9.29791
mm	-9.29947
▁चाल	-9.29953
ತಾ	-9.2996
ेशन	-9.30255
ज़ा	-9.30277
മ്മ	-9.30397
কো	-9.3048
ച്ച്	-9.30533
থা	-9.30701
ांत	-9.30893
नंतर	-9.30908
ತ್ತು	-9.30923
▁ಮರ	-9.31355
ിലും	-9.31359
▁கூற	-9.31434
२	-9.31498
▁शुरू	-9.31498
▁নতুন	-9.31498
▁ಯಾವುದೇ	-9.31498
▁অংশ	-9.31498
▁ముందు	-9.31498
▁కొత్త	-9.31499
कभी	-9.31507
▁than	-9.31522
▁अंतर	-9.31524
▁ആക	-9.31534
ल्ड	-9.31539
▁முதல்	-9.31553
▁తీస	-9.31607
▁राह	-9.31655
ಷ್ಟು	-9.31663
▁प्रकार	-9.31681
▁தொ	-9.31703
▁வரை	-9.31756
ന്നു	-9.31758
▁कु	-9.31761
▁అంత	-9.31787
നം	-9.31956
▁குறி	-9.3205
ியது	-9.32296
তার	-9.32414
▁Ch	-9.32825
चि	-9.32859
▁go	-9.3289
യർ	-9.32904
▁நாட	-9.33086
▁ma	-9.33133
হু	-9.33148
കളിൽ	-9.33161
ிட	-9.33376
▁രാജ്യ	-9.33467
▁ಸಾಮಾನ್ಯವಾಗಿ	-9.33496
▁जि	-9.33552
▁ಇರ	-9.33852
▁आम	-9.33864
▁ട്ര	-9.33943
ರೇ	-9.33944
টে	-9.33962
▁দেশ	-9.34209
ഖ	-9.34333
ia	-9.34368
▁চল	-9.34374
ण्याची	-9.34426
▁ಸ್ಥಳ	-9.34429
▁about	-9.34439
▁तुम्ही	-9.34439
▁உலக	-9.34439
▁ప్రధాన	-9.34439
▁लहान	-9.34439
▁हुआ	-9.34439
▁मुख्य	-9.3444
▁ತನ್ನ	-9.34441
▁ಕಾರಣ	-9.34443
▁ದೇಶ	-9.34443
▁टीम	-9.34473
ಲಾಯಿತು	-9.34473
▁করেছিলেন	-9.34474
▁over	-9.34486
▁घेत	-9.34489
ര്‍	-9.34494
▁அரச	-9.3451
▁अर्थ	-9.34512
ल्प	-9.34547
▁राज	-9.34557
▁सर्वात	-9.34563
▁സമയ	-9.34563
▁மாற்ற	-9.34577
▁மற்ற	-9.34578
▁வெளி	-9.34639
▁గ్ర	-9.34644
पणे	-9.34709
ాలని	-9.34794
யே	-9.34849
തായി	-9.34979
▁अलग	-9.35069
లతో	-9.35082
ியல்	-9.35199
ನೆಯ	-9.35207
▁అధికార	-9.35302
ബി	-9.35395
িস	-9.35403
all	-9.35436
▁முன்ன	-9.35817
▁మె	-9.35915
ರೂಪ	-9.35944
ಡು	-9.35968
▁बु	-9.36138
▁देख	-9.36184
क्क	-9.36296
▁నా	-9.36345
G	-9.36362
▁দল	-9.36391
ಂಚ	-9.36476
ద్ద	-9.36637
▁पाह	-9.36738
ച്ചു	-9.3677
द्र	-9.36785
കർ	-9.36876
▁हर	-9.36879
దేశ	-9.37002
▁असू	-9.3709
ష్ట	-9.37098
గల	-9.37234
...	-9.37309
▁இரு	-9.37337
ಿಯನ್	-9.37376
▁अनु	-9.37449
ज्ञ	-9.37465
▁നിർ	-9.37466
▁place	-9.37469
▁इस्तेमाल	-9.37469
▁ছোট	-9.37469
▁అయితే	-9.37469
▁പുതിയ	-9.37469
ಗೊಳಿಸ	-9.37469
ద్ధ	-9.3747
দ্ধ	-9.37476
थे	-9.37481
▁यांच्या	-9.37487
▁సాధారణంగా	-9.37495
▁जगह	-9.37569
▁up	-9.37614
▁സ്വ	-9.37631
▁करणे	-9.37687
ంటే	-9.37694
தான்	-9.38048
▁സെ	-9.38259
▁काळ	-9.38305
रिक	-9.38573
▁নির্	-9.38741
പ്പെട്ടു	-9.38781
ഫി	-9.38877
▁ഉപയോഗ	-9.38931
ंचे	-9.38999
▁ഇട	-9.38999
ರಿಗೆ	-9.39146
ായിരുന്നു	-9.39206
ಕೊಂಡ	-9.39317
মু	-9.39719
▁మన	-9.39723
▁ചെയ്തു	-9.39843
సీ	-9.39884
▁ചെയ്യുന്ന	-9.39972
▁செ	-9.40147
ಮಾನ	-9.40195
ஓ	-9.40232
▁अमेरिक	-9.40309
டன்	-9.40351
ிலிருந்து	-9.40435
▁செய்த	-9.4048
யும்	-9.40491
▁ব্যা	-9.4059
V	-9.40594
▁अक्सर	-9.40594
▁पदार्थ	-9.40594
▁অন্যান্য	-9.40594
▁வேண்டும்	-9.40594
▁ആണ്	-9.40594
െങ്കിൽ	-9.40595
▁समूह	-9.40595
▁এমন	-9.40595
▁അക	-9.40595
▁सभी	-9.40596
▁सरकार	-9.40596
▁तयार	-9.40596
▁শহর	-9.40596
▁ठेव	-9.40596
▁even	-9.40597
▁into	-9.40599
▁എന്നാൽ	-9.4063
▁मूल	-9.40635
▁ಹೊಸ	-9.40656
▁সাধারণত	-9.40667
▁আছে	-9.40705
▁used	-9.40728
▁विमान	-9.40729
▁pre	-9.40734
▁പോലെ	-9.40767
ப்பா	-9.40855
▁कॅ	-9.40866
களும்	-9.40887
▁వారు	-9.40889
▁அவர்கள்	-9.40909
തിനാൽ	-9.40915
▁ಸಮ	-9.40988
▁रहा	-9.41134
▁ചെയ്യുന്നു	-9.41195
▁സമ	-9.41211
கின்றன	-9.41327
িল	-9.41364
ரே	-9.41505
ুল	-9.41706
▁नाव	-9.41741
▁স্থান	-9.41782
ಕಾರ	-9.41975
पु	-9.41996
ust	-9.42117
মার	-9.42286
ions	-9.42472
▁দিকে	-9.42475
ಲೇ	-9.42996
ങ്ങളെ	-9.43014
শন	-9.43047
தலை	-9.43314
ೆಗೆ	-9.43497
ുമാണ്	-9.43551
▁നില	-9.43557
▁राष्ट्र	-9.43792
▁70	-9.4382
▁after	-9.4382
▁उन्हें	-9.4382
▁उन्होंने	-9.4382
▁हालाँकि	-9.4382
▁ஃப	-9.4382
▁பெரும்பாலும்	-9.4382
▁గురించి	-9.4382
▁ಅತ್ಯಂತ	-9.4382
▁ആദ്യ	-9.4382
▁त्यांनी	-9.4382
▁মূল	-9.4382
▁పెద్ద	-9.4382
▁രണ്ട്	-9.4382
▁हुई	-9.4382
▁వరకు	-9.43821
▁உருவாக்க	-9.43821
തന്നെ	-9.43822
▁work	-9.43823
▁शकतो	-9.43837
ാതെ	-9.43838
▁often	-9.43839
▁വരെ	-9.43841
▁అనేది	-9.43851
▁যদিও	-9.43859
▁পাওয়া	-9.43859
▁जंगल	-9.43863
▁शोध	-9.43876
▁அணி	-9.43887
▁দেয়	-9.43909
▁അനു	-9.43918
▁बस	-9.44059
ob	-9.44126
▁ಸ್ಪ	-9.44154
▁பெற்ற	-9.44176
▁प्रा	-9.44203
▁किए	-9.44209
▁खो	-9.44415
▁बात	-9.44682
▁മെ	-9.44704
▁लोकां	-9.44792
▁பயன்படுத்த	-9.44802
తీ	-9.45134
▁जब	-9.4514
▁అంద	-9.45232
▁ಹೊರ	-9.45334
▁অপ	-9.45385
ுள்ளன	-9.45705
▁ట్ర	-9.45738
யு	-9.45744
▁చె	-9.46028
wa	-9.46114
ಾಗಿದ್ದು	-9.46164
స్తు	-9.4629
ಕಾಲ	-9.46383
ಿಂದಾಗಿ	-9.46393
▁లే	-9.46409
బడింది	-9.46457
എ	-9.46604
I	-9.46673
அ	-9.46737
ಲಾಗುತ್ತದೆ	-9.4685
▁নাম	-9.46922
▁যদি	-9.47114
▁चाहिए	-9.47153
▁আপনার	-9.47153
▁বিভিন্ন	-9.47153
▁புதிய	-9.47153
▁back	-9.47154
▁said	-9.47154
▁ఉత్తర	-9.47154
▁ಉತ್ತರ	-9.47154
▁ದೊಡ್ಡ	-9.47154
▁ರಾಷ್ಟ್ರ	-9.47154
▁শেষ	-9.47154
▁వంటి	-9.47154
▁தொடங்க	-9.47155
▁विचार	-9.47155
▁தேவை	-9.47157
▁ನಗರ	-9.4716
▁झाला	-9.47165
పిల్ల	-9.47181
▁നിങ്ങൾക്ക്	-9.47189
▁त्याच	-9.47192
▁చేయడం	-9.47197
▁இருக்க	-9.47198
ுதல்	-9.47198
▁അതിന്റെ	-9.47204
▁செல்ல	-9.47232
▁మార్	-9.47248
▁நாடுகள	-9.47255
▁காண	-9.47281
ത്തിലെ	-9.47413
▁అవి	-9.47424
ెల్	-9.47469
ರುವ	-9.47536
▁அறிவ	-9.47561
தே	-9.47916
▁ವರ್ಷ	-9.47953
வர்கள்	-9.47954
▁we	-9.47978
▁ചെയ്ത	-9.48044
ട്ട്	-9.48114
▁पास	-9.48329
गत	-9.48355
ന്‍	-9.48378
ഷൻ	-9.48512
▁দ্বীপ	-9.48625
ত্ব	-9.48824
▁La	-9.48931
▁ഭാഗ	-9.49025
ಮೇ	-9.49178
▁डा	-9.49251
▁ಹೊಂದ	-9.49255
গু	-9.49857
ಪ್ಪ	-9.49906
പെ	-9.5015
வின்	-9.50304
బు	-9.50308
बंध	-9.5036
ஷ்	-9.50376
అ	-9.50463
ಿಸುತ್ತದೆ	-9.50489
ினார்	-9.5049
বু	-9.50507
▁കഴിയ	-9.50533
▁केंद्र	-9.50544
▁முக்கிய	-9.50563
▁వాటి	-9.50569
ళ్ళ	-9.50601
▁Ma	-9.50602
६	-9.50602
ঞ্জ	-9.50602
ল্যান্ড	-9.50602
ಘ	-9.50602
▁उपलब्ध	-9.50602
▁मोठ्या	-9.50602
▁लगभग	-9.50602
▁समुद्र	-9.50602
▁ನಿಮ್ಮ	-9.50602
▁large	-9.50602
▁तौर	-9.50602
▁খুব	-9.50602
▁కోసం	-9.50602
पर्यंत	-9.50603
▁make	-9.50603
▁बीच	-9.50604
▁ಹೋಗ	-9.50611
ுவது	-9.50611
▁മാറ്റ	-9.50626
ക്കാർ	-9.50665
▁ಒಳ	-9.50681
▁comp	-9.50696
▁ठर	-9.50716
▁কারণে	-9.50747
▁সেই	-9.50757
ಂತಹ	-9.50761
▁అనే	-9.50766
ുകളുടെ	-9.5079
▁കൊ	-9.50791
ാനുള്ള	-9.50793
▁ಭಾಗ	-9.50851
ಿನಲ್ಲಿ	-9.50869
গুলিতে	-9.50906
▁உள்ளன	-9.5106
ಂಗ್	-9.51155
ire	-9.51169
old	-9.51229
▁her	-9.51489
ಿಸಲು	-9.51499
ধা	-9.51507
ுகின்றன	-9.51582
▁প্রথম	-9.51748
ಟಾ	-9.51794
য়ের	-9.52188
▁them	-9.52264
▁बो	-9.52287
्रि	-9.52383
▁form	-9.5246
▁என்பதை	-9.52476
জে	-9.52579
▁வந்த	-9.52618
লার	-9.52878
▁முன்	-9.52881
▁डि	-9.52969
ಟೆ	-9.52978
్లో	-9.53007
தால்	-9.5314
▁వచ్చ	-9.53256
ಗಾಗಿ	-9.53358
ासाठी	-9.53365
▁പല	-9.53512
com	-9.53538
▁Co	-9.53658
ங்களில்	-9.54036
वरील	-9.54109
▁നിങ്ങൾ	-9.54158
ുമ്പോൾ	-9.54165
▁क्योंकि	-9.54173
▁ভ্রমণ	-9.54173
▁அமெரிக்க	-9.54173
▁తిరిగి	-9.54173
▁ಉತ್ತಮ	-9.54173
▁ಕೆಲಸ	-9.54173
▁ದ್ವೀಪ	-9.54173
▁ಮುಖ್ಯ	-9.54173
▁അദ്ദേഹം	-9.54173
▁This	-9.54173
▁तसेच	-9.54173
▁पुरुष	-9.54173
▁మరింత	-9.54173
▁ಎರಡು	-9.54173
▁தீவு	-9.54173
▁അവസാന	-9.54173
▁नवीन	-9.54174
▁వల్ల	-9.54174
▁നഗര	-9.54174
▁పొంద	-9.54174
▁यात्रा	-9.54174
▁বিশ্ব	-9.54183
▁सुरुवात	-9.54184
ಾಸ	-9.54184
ांवर	-9.54193
▁ক্যা	-9.54205
▁ஆண்டு	-9.54227
▁वाली	-9.54241
▁জল	-9.54265
ാഴ്	-9.5429
▁ಕಾಣ	-9.54308
▁12	-9.54368
▁ಬಂದ	-9.54422
കളുടെ	-9.54426
ియన్	-9.54464
▁your	-9.54491
▁only	-9.54516
র্ড	-9.5454
▁ಪರಿ	-9.54606
సే	-9.54739
ುದು	-9.54812
▁করেন	-9.54903
▁దేశాల	-9.54988
▁பத	-9.55116
జీ	-9.55207
▁दु	-9.55481
▁हि	-9.55511
▁बेट	-9.55592
ించడానికి	-9.55776
ाया	-9.55915
▁இருந்து	-9.56013
ஜி	-9.56138
▁செய்	-9.5617
▁जात	-9.56176
झा	-9.56251
্থ	-9.56514
யர்	-9.56634
ಿಕೆಯ	-9.56659
ாவின்	-9.56887
మో	-9.57149
▁फि	-9.57183
ంగ్	-9.57355
ോട്	-9.57501
ించే	-9.57571
▁ಅನು	-9.57628
▁ಮಾಡಿದ	-9.57725
▁ಮೊದಲ	-9.57735
▁বিষয়	-9.57743
▁आवश्यक	-9.57778
▁ఎక్కువ	-9.57785
▁2020	-9.57877
▁द्वीप	-9.57877
▁शब्द	-9.57877
▁অভি	-9.57877
▁দক্ষিণ	-9.57877
▁যখন	-9.57877
▁সম্পর্ক	-9.57877
▁ದಕ್ಷಿಣ	-9.57877
▁ദ്വീപ	-9.57877
५	-9.57877
▁जिसमें	-9.57877
▁நிறுவன	-9.57877
▁కేంద్ర	-9.57877
▁చెప్ప	-9.57877
▁অর্থ	-9.57877
▁दौरान	-9.57877
▁made	-9.57878
▁പറയ	-9.57878
जवळ	-9.57882
▁ধরে	-9.57884
▁दिख	-9.57887
▁வழக்க	-9.57896
▁কাছে	-9.57908
▁out	-9.57909
▁പറഞ്ഞു	-9.57913
▁आपको	-9.57927
లపై	-9.5795
▁ಎಲ್ಲಾ	-9.57963
▁जग	-9.57966
▁ప్రజల	-9.57985
▁கண்ட	-9.57987
▁इसके	-9.58035
▁കണ്ടെത്ത	-9.5804
ేషన్	-9.5805
▁வகை	-9.58052
▁exp	-9.58093
▁नदी	-9.58096
▁হলো	-9.58126
▁എത്ത	-9.58187
ವರು	-9.5823
▁അവർ	-9.58405
ण्यास	-9.58457
▁கார்	-9.58584
▁ಜನರ	-9.5861
கிறது	-9.58691
ക്കുന്നു	-9.58698
প্র	-9.5871
▁കട	-9.58864
▁தர	-9.59383
▁பட	-9.59393
▁बार	-9.60089
▁போல	-9.60214
ಪಡಿಸ	-9.60218
ாகவும்	-9.60349
నె	-9.60442
▁बंद	-9.60501
ண்டி	-9.60596
▁సై	-9.60886
ుతున్న	-9.60913
ించారు	-9.60918
ർക്ക്	-9.60954
ண்டு	-9.61281
▁भू	-9.613
ಳೆ	-9.61354
▁মানুষ	-9.61491
விட	-9.61537
ोस	-9.61714
ங்களுக்கு	-9.6172
কৃত	-9.61723
বর্তী	-9.61723
৫	-9.61723
▁first	-9.61723
▁should	-9.61723
▁बढ़	-9.61723
▁समावेश	-9.61723
▁বেশিরভাগ	-9.61723
▁হচ্ছে	-9.61723
▁பொருட்கள	-9.61723
▁రెండు	-9.61723
▁നിരവധി	-9.61723
▁सदस्य	-9.61723
▁such	-9.61723
▁ಇದನ್ನು	-9.61724
▁ഓരോ	-9.61724
▁water	-9.61725
▁കാരണം	-9.61726
▁ലോക	-9.61727
▁झाली	-9.61729
▁ক্ষেত্রে	-9.61731
ാണെന്ന്	-9.61731
▁km	-9.61755
र्थ	-9.61771
▁చేయడానికి	-9.61776
ானது	-9.61855
ಿನ್	-9.61856
▁বড়	-9.61882
▁விமான	-9.61921
▁वै	-9.61951
▁ओर	-9.6197
संबंध	-9.61995
ेला	-9.62272
லே	-9.62335
▁മിക്ക	-9.62397
▁लगा	-9.62415
▁ಮಾಡುವ	-9.62678
▁మార	-9.63007
மோ	-9.63281
▁যার	-9.63455
ish	-9.63561
റിയ	-9.63642
ാത്ത	-9.63894
रिया	-9.63936
എൻ	-9.64026
ांसाठी	-9.6433
യിരുന്ന	-9.64543
ನೋ	-9.64638
▁पी	-9.64724
ೃ	-9.64786
సె	-9.64874
▁చేర	-9.65268
म्प	-9.65438
▁ಸಾಗ	-9.6546
ില്‍	-9.65626
కుండా	-9.65716
▁would	-9.65723
▁জায়গা	-9.65723
▁প্রয়োজন	-9.65723
▁குழந்தை	-9.65723
▁కొరకు	-9.65723
▁తరచుగా	-9.65723
▁ಕಡಿಮೆ	-9.65723
▁ಸ್ಥಾನ	-9.65723
▁কয়েক	-9.65723
▁পর্যন্ত	-9.65723
ജ്ജ	-9.65723
▁প্রাণী	-9.65723
▁அனைத்து	-9.65723
▁चर्च	-9.65724
▁ജീവ	-9.65726
▁ചെറിയ	-9.65729
▁good	-9.65738
▁बर्फ	-9.6574
▁state	-9.65743
▁आधारित	-9.65757
▁प्रभावित	-9.65771
▁திற	-9.65778
▁ট্র	-9.65788
▁সরকার	-9.65798
▁संघ	-9.65809
▁ബന്ധ	-9.6581
▁लक्ष	-9.65815
▁വടക്ക	-9.65825
▁आवश्यकता	-9.6583
களால்	-9.65841
low	-9.65905
▁any	-9.66058
▁പോക	-9.66128
▁सेंट	-9.66193
ിയൻ	-9.66216
▁इं	-9.66348
▁সু	-9.66367
നും	-9.66371
▁ഒന്ന	-9.66379
ിനു	-9.66643
छ	-9.66742
ಯಿಂದ	-9.6691
ग्रे	-9.67013
ിട്ടുണ്ട്	-9.67014
▁స్ప	-9.67025
ుంది	-9.67249
ಿದ್ದು	-9.67413
ിക്കുകയും	-9.67692
ాలలో	-9.67948
বাদ	-9.67978
ுள்ளது	-9.68034
നായ	-9.68979
▁man	-9.69116
ಜನ	-9.69506
▁ಬಹಳ	-9.69881
ಗೊಂಡ	-9.69882
ough	-9.69887
▁வளர்	-9.69889
X	-9.6989
▁2010	-9.6989
▁2017	-9.6989
▁तुम्हाला	-9.6989
▁परिणाम	-9.6989
▁पृथ्वी	-9.6989
▁म्हणजे	-9.6989
▁सुरक्षित	-9.6989
▁মাধ্যমে	-9.6989
▁பொதுவாக	-9.6989
▁மட்டுமே	-9.6989
▁జంతువుల	-9.6989
▁నుంచి	-9.6989
▁సంవత్సరాల	-9.6989
▁আমাদের	-9.6989
▁తక్కువ	-9.6989
▁ಉಪ	-9.6989
▁இணை	-9.6989
▁ವರದಿ	-9.6989
മുമ്പ്	-9.6989
▁రోజు	-9.6989
▁take	-9.69891
▁जानवर	-9.69891
▁ವಿಷಯ	-9.69891
▁ದೂರ	-9.69895
▁केवल	-9.69909
▁ஆகியவை	-9.69909
▁ಕಾರ್ಯ	-9.69915
▁போட்டி	-9.69923
জীব	-9.69927
▁പ്രതി	-9.69933
▁సమయంలో	-9.69935
▁ski	-9.69938
▁ഷോ	-9.6994
ாது	-9.69941
शास्त्र	-9.6997
wide	-9.70004
▁करण्यात	-9.70038
▁get	-9.70039
min	-9.70058
▁వై	-9.70082
▁பிற	-9.70105
টের	-9.70109
ப்படுகின்றன	-9.70129
▁மக்கள	-9.7024
▁సూ	-9.7038
ിട്ടു	-9.70385
▁যারা	-9.70476
▁মো	-9.70516
▁அழ	-9.70529
▁పడ	-9.70809
▁Ca	-9.70924
ಿತ್ತು	-9.70978
▁नाम	-9.71208
▁पार	-9.71215
▁സ്ക	-9.7124
१	-9.71294
हाय	-9.71586
▁अशा	-9.71664
്തി	-9.71848
ांचे	-9.7192
▁ప్రా	-9.72059
▁স্ব	-9.72231
এর	-9.72235
ക്കാൻ	-9.72285
▁പോ	-9.7258
▁पि	-9.72599
করণ	-9.72688
ডে	-9.72777
ফে	-9.72916
▁St	-9.73028
▁অব	-9.73333
▁ಮೇಲ	-9.7344
ಿದ್ದರು	-9.7353
ম্ব	-9.73711
▁ಅವು	-9.73778
ண்ட்	-9.74035
ిని	-9.74065
▁ভাল	-9.74122
▁ಮೂಲ	-9.74153
தற்கு	-9.74166
iv	-9.7421
च्छ	-9.74237
दरम्यान	-9.74238
▁through	-9.74238
▁world	-9.74238
▁निर्माण	-9.74238
▁प्रमुख	-9.74238
▁वैज्ञानिक	-9.74238
▁सिद्धांत	-9.74238
▁পূর্ব	-9.74238
▁சிறிய	-9.74238
▁మాత్రమే	-9.74238
▁ಅಗತ್ಯ	-9.74238
▁ಆರಂಭ	-9.74238
▁ಹಲವಾರು	-9.74238
▁इसलिए	-9.74238
▁प्रमाणात	-9.74238
▁গাড়ি	-9.74238
▁ആരംഭ	-9.74238
▁ആളുകൾ	-9.74238
ছাড়া	-9.74238
▁called	-9.74238
▁ಪೂರ್ವ	-9.74238
▁आसान	-9.74238
▁खूप	-9.74238
▁स्की	-9.74239
▁இல்லை	-9.74239
▁అన్ని	-9.74239
▁बड़ी	-9.74239
▁சிறப்ப	-9.7424
▁অবস্থা	-9.74241
▁കാര്യ	-9.74244
ible	-9.74247
▁വെള്ള	-9.74259
▁குழு	-9.74274
▁கூட்ட	-9.74276
▁part	-9.7429
▁ತಂಡ	-9.74306
ುದರಿಂದ	-9.74308
▁पार्क	-9.7431
ாவில்	-9.74322
ন্স	-9.74342
▁நடத்த	-9.74375
யாகும்	-9.74388
▁இருந்தது	-9.74392
ിക്കുക	-9.74402
▁ప్రాంత	-9.74413
▁ফলে	-9.74414
▁മുൻ	-9.74415
ിരിക്കുന്ന	-9.7443
tain	-9.7444
▁மலை	-9.74495
▁बारे	-9.74513
▁ನೋಡ	-9.74513
स्त्र	-9.74527
▁ಮೊ	-9.74586
▁मत	-9.74602
▁शो	-9.7465
▁असले	-9.74657
णारे	-9.7466
rain	-9.74705
ಣೆಯ	-9.74789
ಮಾರ್ಗ	-9.74802
▁যেতে	-9.7483
ாகும்	-9.74888
களைக்	-9.749
side	-9.75031
▁দু	-9.75261
▁நோய	-9.75332
▁being	-9.75356
▁नाहीत	-9.75432
▁दर	-9.75575
▁காட்ட	-9.75607
▁ಕ್ಯಾ	-9.75643
ಿಸಿದರು	-9.76113
கர்	-9.76287
ಕರ್	-9.76356
ವ್	-9.7648
▁বো	-9.76581
▁തട	-9.76711
▁ഉണ്ടായ	-9.76962
▁देता	-9.77182
▁ചെ	-9.77189
▁ಬರ	-9.77536
▁ದಾ	-9.77856
ப்பட்டுள்ளது	-9.78375
▁रि	-9.78437
▁ప్రాంతాల	-9.78631
’	-9.78783
▁पहुँच	-9.78783
उदाहरण	-9.78783
ঃ	-9.78783
কেন্দ্র	-9.78783
২	-9.78783
వ్యవస్థ	-9.78783
ೊಂದಿಗೆ	-9.78783
യുദ്ധ	-9.78783
▁Africa	-9.78783
▁country	-9.78783
▁where	-9.78783
▁शुरुआत	-9.78783
▁உதவ	-9.78783
▁பெரும்பாலான	-9.78783
▁போக்குவரத்து	-9.78783
▁மூலம்	-9.78783
▁விலங்குகள	-9.78783
▁ಅತಿ	-9.78783
▁ಅನೇಕ	-9.78783
▁ಅಲ್ಲಿ	-9.78783
▁ಸಣ್ಣ	-9.78783
▁മനുഷ്യ	-9.78783
▁വ്യത്യസ്ത	-9.78783
▁മൃഗ	-9.78783
▁சிறந்த	-9.78783
▁മുതൽ	-9.78783
▁எதிர்	-9.78783
▁प्राप्त	-9.78783
▁प्राचीन	-9.78784
▁प्रकाश	-9.78784
▁നടത്ത	-9.78784
▁ஆகும்	-9.78784
▁बड़े	-9.78784
▁అతను	-9.78785
▁भेट	-9.78785
▁പലപ്പോഴും	-9.7879
▁மத்திய	-9.7879
▁team	-9.78793
▁பிறகு	-9.78801
▁near	-9.78802
▁ವಿಮಾನ	-9.78818
▁need	-9.7882
ಬ್ಬ	-9.7885
line	-9.78855
ಕ್ಕೂ	-9.7886
▁বিমান	-9.78861
▁माहिती	-9.78868
▁ठिकाणी	-9.78881
▁end	-9.78892
▁40	-9.78913
▁కాదు	-9.78954
▁కాలం	-9.78969
▁21	-9.79035
స్తాయి	-9.79047
ाइट	-9.79054
ण्याच्या	-9.7907
▁எந்த	-9.79105
▁समज	-9.7912
▁தங்கள்	-9.7913
▁ಮಾಡಿ	-9.79174
▁देते	-9.79183
▁சீ	-9.79216
▁സഹ	-9.79272
▁செயல்பட	-9.79282
▁आकार	-9.79286
▁चार	-9.7931
▁ஓட்ட	-9.79316
ియో	-9.79329
▁மாற	-9.79331
ലുകൾ	-9.7935
▁লক্ষ	-9.79436
▁On	-9.79488
▁No	-9.7959
▁பால	-9.79705
▁పని	-9.79845
পাত	-9.79931
▁imp	-9.8008
▁पड	-9.80167
ಾಗಿತ್ತು	-9.80256
▁ಸಾಮಾನ್ಯ	-9.8027
पट	-9.80294
▁आता	-9.80356
ಯಾಗಿದೆ	-9.81061
ஹ	-9.81078
ിക്കുന്നത്	-9.8108
ங்கி	-9.81157
भाव	-9.8121
മില്ല	-9.8131
B	-9.81364
▁see	-9.81412
▁ಇರುವ	-9.81513
மே	-9.81533
ಕಾರಿ	-9.81538
మీ	-9.81646
▁ಹೊ	-9.81755
▁সব	-9.81878
▁cha	-9.81939
▁वेळ	-9.82039
▁ഇല്ല	-9.82276
▁எழுத	-9.82752
డే	-9.82826
▁അറിയ	-9.82938
మై	-9.8298
ೈನ್	-9.83009
সহ	-9.83036
ിരുന്നു	-9.83149
cur	-9.83249
க்கிறது	-9.83392
▁বাস	-9.83403
മാക്ക	-9.835
െടുത്ത	-9.8351
क्रम	-9.83534
▁கொள்ள	-9.83544
▁ಸಾಧ್ಯ	-9.83544
spect	-9.83545
৬	-9.83545
৯	-9.83545
ஐ	-9.83545
▁small	-9.83545
▁एखाद्या	-9.83545
▁गंभीर	-9.83545
▁लोकप्रिय	-9.83545
▁আফ্রিকা	-9.83545
▁হিসেবে	-9.83545
▁பெண்	-9.83545
▁తర్వాత	-9.83545
▁మొదటి	-9.83545
▁ಕೇಂದ್ರ	-9.83545
▁ನಡೆಸ	-9.83545
▁ಸುಮಾರು	-9.83545
▁ഉൾപ്പെടുന്ന	-9.83545
३	-9.83545
৪	-9.83545
▁show	-9.83545
▁প্রধান	-9.83545
▁பின்னர்	-9.83545
▁प्रवेश	-9.83545
▁చేసిన	-9.83545
കൊണ്ട്	-9.83545
▁वजह	-9.83546
▁start	-9.83547
▁प्रभाव	-9.83547
▁अपना	-9.83547
▁వ్యా	-9.83547
▁सकती	-9.83548
▁സാധാരണ	-9.83552
▁প্রভাব	-9.83554
ുമെന്ന്	-9.83556
▁संयुक्त	-9.83559
▁வெளியே	-9.83561
▁నగర	-9.83565
▁very	-9.83566
▁ज़्यादातर	-9.83573
ುತ್ತಿರುವ	-9.83577
▁জানা	-9.83593
▁ఉంచ	-9.83596
▁কথা	-9.83599
ிக்கப்பட்ட	-9.83606
▁Ne	-9.83608
east	-9.83632
▁जाऊ	-9.83649
▁घेण्या	-9.8369
▁এটা	-9.837
▁বিষয়ে	-9.83718
র্ম	-9.83719
▁करतो	-9.83729
▁केल्या	-9.83842
▁একই	-9.83849
▁साध	-9.83989
योग्य	-9.83991
▁അതിന	-9.84022
▁ಹಣ	-9.84179
▁केलेल्या	-9.84246
േക്ക്	-9.84323
▁असेल	-9.84379
▁இற	-9.84413
▁സൈ	-9.84416
দে	-9.84489
ल्यानंतर	-9.84512
▁বলা	-9.84613
▁गेले	-9.84707
▁பழ	-9.84783
গুলোর	-9.84988
▁సమ	-9.8513
ುತ್ತಿದ್ದ	-9.85543
টিকে	-9.85698
▁चीन	-9.85718
സ്ട്ര	-9.85751
ময়	-9.85866
▁ಎಲ್ಲ	-9.86104
വുമായ	-9.86182
ഇ	-9.8637
আ	-9.86381
জার	-9.86504
पत्र	-9.8651
ki	-9.87106
ார்கள்	-9.8727
്‍	-9.87501
ಭಾವ	-9.87586
▁குறை	-9.8765
▁year	-9.87996
▁ఉపయోగించ	-9.88302
▁কারণ	-9.88343
ियाँ	-9.88522
പ്പോഴും	-9.88537
ಸ್ಥಿತಿ	-9.88541
▁ప్రయాణ	-9.88541
▁యుద్ధ	-9.88545
▁ഭൂമി	-9.88545
7,000	-9.88545
सारखे	-9.88545
ీకరించ	-9.88545
▁because	-9.88545
▁between	-9.88545
▁different	-9.88545
▁found	-9.88545
▁ऑस्ट्रेलिया	-9.88545
▁कंपनी	-9.88545
▁जवळपास	-9.88545
▁प्रक्रिया	-9.88545
▁फक्त	-9.88545
▁भाषा	-9.88545
▁स्वतंत्र	-9.88545
▁যেখানে	-9.88545
▁ஒன்று	-9.88545
▁மொழி	-9.88545
▁సంస్థ	-9.88545
▁ಪಡೆದ	-9.88545
▁പോലുള്ള	-9.88545
▁സാധാരണയായി	-9.88545
▁அதிகாரி	-9.88545
▁తయారు	-9.88545
प्रमाणे	-9.88545
▁north	-9.88545
▁स्वीकार	-9.88545
▁खेळ	-9.88546
▁தனது	-9.88546
▁सुरू	-9.88546
▁just	-9.88548
▁ಇದರ	-9.88549
▁നിങ്ങളുടെ	-9.8855
▁move	-9.88554
▁ഫ്ര	-9.88557
▁कार्यक्रम	-9.88557
▁धर्म	-9.88558
▁प्रवास	-9.88561
(1)	-9.88566
▁ಸ್ಥಳೀಯ	-9.88568
▁ಇನ್ನೂ	-9.88571
▁येथे	-9.88573
▁जीव	-9.88581
ுவதற்கு	-9.88583
▁সমস্ত	-9.88586
ಕ್ಕಾಗಿ	-9.88589
▁राष्ट्रीय	-9.88589
▁തുടങ്ങിയ	-9.88597
▁well	-9.88599
▁সহজ	-9.8862
▁একজন	-9.8862
▁দিন	-9.8864
▁अभि	-9.88659
▁పట్ట	-9.88675
▁24	-9.88676
▁మొ	-9.887
▁பற்றி	-9.88706
▁চার	-9.88714
▁खास	-9.88741
▁पानी	-9.88802
▁தெர	-9.88817
ಸ್ಟ್ರ	-9.88864
ism	-9.88906
ினர்	-9.88934
ards	-9.8904
▁देशों	-9.89062
▁ക്ല	-9.89085
▁पड़	-9.89103
▁त्याला	-9.89133
ುವಿಕೆ	-9.89326
र्न	-9.89572
ುತ್ತಾ	-9.896
▁आण	-9.89722
▁ডা	-9.89858
▁ఫి	-9.90213
▁ಟ್ರ	-9.90396
▁മാറ	-9.90419
▁तट	-9.90468
ക്കുന്നത	-9.90521
ക്കുകയും	-9.90564
▁என்பத	-9.90847
▁ಪ್ರಾಣಿ	-9.9107
▁நிலைய	-9.91159
▁ഉപയോഗിക്കുന്ന	-9.91273
▁ग्र	-9.91478
▁చేయబడ	-9.91672
కులు	-9.91672
(	-9.91956
ങ്	-9.92618
ick	-9.92663
▁യു	-9.92825
ல்லாத	-9.92833
▁இருப்பத	-9.92834
ಾದರೂ	-9.92998
▁നയ	-9.93134
▁সাধারণ	-9.93379
त्व	-9.93436
▁ప్రారంభించ	-9.93512
▁মধ্য	-9.93598
▁கொண்டு	-9.93664
▁বেশ	-9.937
▁மனித	-9.93799
সংস্কৃতি	-9.93808
▁include	-9.93808
▁travel	-9.93808
▁आमतौर	-9.93808
▁घोषणा	-9.93808
▁दर्शव	-9.93808
▁प्रयत्न	-9.93808
▁बहुतांश	-9.93808
▁मोठे	-9.93808
▁मौजूद	-9.93808
▁हिस्सा	-9.93808
▁সবচেয়ে	-9.93808
▁ఆమె	-9.93808
▁వాతావరణ	-9.93808
▁ರೀತಿಯ	-9.93808
▁own	-9.93808
▁अनुभव	-9.93808
▁गोष्टी	-9.93808
▁दुनिया	-9.93808
▁চেয়ে	-9.93808
▁മത്സര	-9.93808
▁அமைப்பு	-9.93808
▁রোগ	-9.93808
▁രോഗ	-9.93808
▁same	-9.93809
শীল	-9.93809
▁high	-9.93812
▁सोड	-9.93812
▁केवळ	-9.93813
▁समस्या	-9.93821
कडून	-9.93822
▁பெற	-9.93827
▁நம்ப	-9.93843
▁பட்ட	-9.93843
▁त्यांचे	-9.93848
▁செல்	-9.93848
▁அவரது	-9.93875
പരമായ	-9.93881
▁முடியாத	-9.93883
▁असतो	-9.93885
ాల్సి	-9.93896
▁করবে	-9.93899
तः	-9.93902
▁बनाया	-9.93915
▁2005	-9.93925
▁ಅವುಗಳನ್ನು	-9.93933
ுக்கான	-9.93936
▁main	-9.93942
▁दिन	-9.93971
▁ಇದ್ದ	-9.93986
ിലാണ്	-9.94009
▁अगर	-9.94077
▁ప్రారంభ	-9.94105
ினால்	-9.94134
▁লোক	-9.94169
▁use	-9.94204
▁ಅವುಗಳ	-9.94245
ങ്ങളിലും	-9.94246
▁पक्ष	-9.94268
▁उसे	-9.94286
पोर्	-9.94331
▁There	-9.94359
▁अॅ	-9.94365
▁అది	-9.94413
▁पूर्वी	-9.94475
റുകൾ	-9.94517
▁घड	-9.94643
▁They	-9.9491
▁वाट	-9.94935
▁जातात	-9.95299
▁పి	-9.95345
ுடைய	-9.95437
শু	-9.95802
ున్నారు	-9.95849
▁झाल्या	-9.96056
▁മാത്രമ	-9.96456
▁சம	-9.96633
బడిన	-9.96683
▁அளவ	-9.96686
ല്ലാത്ത	-9.96836
▁திரு	-9.96876
ிருப்ப	-9.97064
౦ది	-9.9721
▁স্থানে	-9.97267
हार	-9.97543
யைப்	-9.97644
▁মনে	-9.97753
▁महा	-9.98516
ക്കുള്ള	-9.98567
ുണ്ടാ	-9.98804
பவர்	-9.98867
▁காரணமாக	-9.99097
പ്പെടുന്ന	-9.99205
▁തുടങ്ങ	-9.99306
ருக்கு	-9.99322
ೆಂದು	-9.99351
ங்களின்	-9.99362
▁ব্যবস্থা	-9.99363
▁ஒப்ப	-9.99364
▁AI	-9.99364
▁transport	-9.99364
▁जहाँ	-9.99364
▁यूरोप	-9.99364
▁व्यवस्था	-9.99364
▁পদ্ধতি	-9.99364
▁পৃথিবী	-9.99364
▁মহিলা	-9.99364
▁ஒரே	-9.99364
▁అవసరం	-9.99364
▁కేవలం	-9.99364
▁తీవ్ర	-9.99364
▁భూమి	-9.99364
▁ಅರ್ಥ	-9.99364
▁ಪ್ರಮುಖ	-9.99364
▁ವಿಭಿನ್ನ	-9.99364
▁ವಿಶೇಷ	-9.99364
▁ಸೂಚಿಸ	-9.99364
▁അപകട	-9.99364
▁എന്നിരുന്നാലും	-9.99364
▁ഏകദേശം	-9.99364
▁കഴിഞ്ഞ	-9.99364
▁സ്ത്രീ	-9.99364
▁South	-9.99364
▁विश्व	-9.99364
▁व्यापक	-9.99364
▁প্রায়শই	-9.99364
▁শব্দ	-9.99364
▁చుట్ట	-9.99364
▁దాదాపు	-9.99364
▁ಮಧ್ಯ	-9.99364
குறிப்பாக	-9.99364
▁each	-9.99364
▁तुलना	-9.99364
▁शिकार	-9.99364
▁അടി	-9.99364
▁when	-9.99364
▁ನಡೆಯ	-9.99364
▁ಬೇರೆ	-9.99364
▁পরিবেশ	-9.99364
▁ഭക്ഷണ	-9.99364
▁संकेत	-9.99364
▁ಹಲವು	-9.99364
मधून	-9.99366
▁काफी	-9.99367
▁വിമാന	-9.99367
run	-9.99368
▁भारत	-9.99368
▁though	-9.99369
ിട്ടില്ല	-9.9937
▁संबंधित	-9.9937
▁ಪ್ರವಾಸ	-9.99371
▁అక్కడ	-9.99376
▁கூறினார்	-9.99379
▁ഉപയോഗിച്ച്	-9.99383
▁ಸೇರಿ	-9.99388
ിട്ടുള്ള	-9.9939
▁மணி	-9.99391
▁చెందిన	-9.99399
▁எளித	-9.99406
▁झालेल्या	-9.99418
▁पद्धत	-9.99425
▁உங்கள்	-9.99429
▁പേർ	-9.99433
▁உணவு	-9.99442
కారం	-9.99444
▁known	-9.99462
▁ஆகியவற்ற	-9.99467
প্ল	-9.99474
▁सामान	-9.99483
േണ്ടത	-9.99505
▁जर्मनी	-9.99517
▁व्यक्ती	-9.99521
▁animals	-9.99537
▁ಸಮಯ	-9.99547
స్ట్ర	-9.9959
▁బాగా	-9.99591
▁बिना	-9.99604
▁జీవ	-9.99624
ock	-9.9964
▁क्षेत्रों	-9.99677
▁तीन	-9.99724
▁ఒకటి	-9.99726
ങ്ങൾക്ക്	-9.99831
▁समझ	-9.99842
▁अमेरिका	-9.99879
▁मानव	-9.99887
▁சரி	-9.99973
▁years	-9.99979
ात्मक	-10.0004
vers	-10.0029
ற்கு	-10.0031
▁mar	-10.0036
▁खेल	-10.0039
ness	-10.0045
களுடன்	-10.0046
எஸ்	-10.0068
▁ತಿಳಿದ	-10.0106
బడ్డాయి	-10.0125
▁பார்	-10.0166
▁சூழ	-10.0189
श्र	-10.0194
▁அளவு	-10.0219
ಪೂ	-10.027
டைந்த	-10.0277
▁ఉపయోగ	-10.0298
▁ಜೀವನ	-10.0314
സ്റ്റ്	-10.0327
▁తెలుస	-10.0382
ినప్పుడు	-10.0385
▁നിര	-10.0389
ose	-10.0394
எ	-10.0396
अलग	-10.0399
இ	-10.04
ಿಷ್	-10.0407
പ്പെടുന്നു	-10.0428
▁ವಿಧಾನ	-10.0445
മെന്ന	-10.0482
▁രീതി	-10.0494
▁হওয়া	-10.0501
രൂപ	-10.051
▁దీని	-10.0516
▁సాధారణ	-10.052
ప్పటి	-10.052
▁ಒಂದ	-10.0522
రూప	-10.0522
ষ্ঠ	-10.0523
▁கருத	-10.0523
പ്രത്യേക	-10.0525
▁युरोप	-10.0525
▁তুলনা	-10.0525
▁வேறு	-10.0525
▁కనుగొన	-10.0525
▁ಶತಮಾನ	-10.0525
▁സംഭവ	-10.0525
सारख्या	-10.0525
రాత్రి	-10.0525
▁Europe	-10.0525
▁GMT	-10.0525
▁around	-10.0525
▁great	-10.0525
▁human	-10.0525
▁visit	-10.0525
▁उच्च	-10.0525
▁उनकी	-10.0525
▁कदाचित	-10.0525
▁छोटे	-10.0525
▁दुर्घटना	-10.0525
▁पुन्हा	-10.0525
▁मनुष्य	-10.0525
▁महत्त्व	-10.0525
▁म्हणाले	-10.0525
▁राजधानी	-10.0525
▁विकसित	-10.0525
▁संस्कृती	-10.0525
▁सांगितले	-10.0525
▁ইউরোপ	-10.0525
▁ব্যক্তি	-10.0525
▁মার্কিন	-10.0525
▁সংস্থা	-10.0525
▁সাহায্য	-10.0525
▁இருப்பினும்	-10.0525
▁ஏற்பட்ட	-10.0525
▁நடவடிக்கை	-10.0525
▁நூற்றாண்ட	-10.0525
▁மூன்று	-10.0525
▁జనాభా	-10.0525
▁జరిగిన	-10.0525
▁మహిళ	-10.0525
▁ಅದನ್ನು	-10.0525
▁ವ್ಯಕ್ತಿ	-10.0525
▁ധാരാളം	-10.0525
▁പ്രവർത്തിക്ക	-10.0525
▁ശ്രമ	-10.0525
▁സ്ഥലങ്ങള	-10.0525
ற்கான	-10.0525
ಕ್ಕಿಂತ	-10.0525
▁निर्मित	-10.0525
▁உறுதி	-10.0525
▁కారణంగా	-10.0525
▁వస్తువుల	-10.0525
▁ವಿಶ್ವ	-10.0525
▁ಸ್ವಲ್ಪ	-10.0525
▁അവിടെ	-10.0525
▁നൂറ്റാണ്ട	-10.0525
▁മികച്ച	-10.0525
▁చూడ	-10.0525
▁తెలిప	-10.0525
▁ನಮ್ಮ	-10.0525
▁ಪಡೆಯ	-10.0525
▁ജോലി	-10.0525
ಗಳಿವೆ	-10.0525
▁ರಸ್ತೆ	-10.0525
▁যাওয়ার	-10.0525
▁ಹಿಂದೆ	-10.0525
▁പക്ഷേ	-10.0525
মিটার	-10.0525
▁ಸಹಾಯ	-10.0525
േക്കാം	-10.0525
▁sub	-10.0525
▁আমরা	-10.0525
▁प्रदान	-10.0525
▁विकास	-10.0525
▁জাতীয়	-10.0525
▁যেমন	-10.0525
▁வடிவ	-10.0525
ship	-10.0525
▁রাস্তা	-10.0525
based	-10.0525
▁ഉണ്ടായിരുന്നു	-10.0525
▁ಸರ್ಕಾರ	-10.0525
ற்காக	-10.0526
▁inter	-10.0526
▁ಒಳಗೊಂಡ	-10.0526
▁হাজার	-10.0526
▁ஆய்வ	-10.0527
ాయని	-10.0527
▁எண்ண	-10.0527
▁तुमच्या	-10.0527
▁दिसत	-10.0528
▁वाढ	-10.0528
▁शतक	-10.0529
నప్పటికీ	-10.0529
▁ಸಮಯದಲ್ಲಿ	-10.053
रोध	-10.0531
▁వద్ద	-10.0532
▁స్కీ	-10.0532
▁उसके	-10.0533
ிலான	-10.0533
▁ম্যা	-10.0534
owever	-10.0534
ದಲ್ಲಿರುವ	-10.0534
▁डॉ	-10.0536
▁দুটি	-10.0536
▁கிடை	-10.0536
▁आपल्याला	-10.0536
▁കഴിയും	-10.0537
▁होऊ	-10.0537
▁വിളിക്ക	-10.0537
▁వాటిని	-10.054
▁அதே	-10.0541
▁ರಿಂದ	-10.0543
▁ఇవి	-10.0544
▁അവയുടെ	-10.0544
▁ಕಂಡ	-10.0544
▁400	-10.0545
▁स्थानिक	-10.0546
മുഖ	-10.0546
▁ಕೊನೆ	-10.0552
ంటారు	-10.0553
▁For	-10.0554
ত্ত	-10.0554
▁बाय	-10.0556
▁ಕೈ	-10.0559
वीं	-10.0566
গুলিকে	-10.058
▁क्ल	-10.0583
ದಂತೆ	-10.0583
▁ರಾಜ	-10.0593
ಷನ್	-10.0594
▁Re	-10.0604
▁படை	-10.0607
▁পুর	-10.0616
ामुळे	-10.0624
▁পড়ে	-10.0627
വാദ	-10.0648
▁നേട	-10.0659
തരം	-10.0668
▁వచ్చిన	-10.0681
ಬೋ	-10.0711
பார்க்க	-10.072
▁போர்	-10.0729
▁পড়	-10.0753
▁जीवन	-10.077
എസ്	-10.0773
ातून	-10.0788
▁చెంద	-10.0792
நோ	-10.0809
▁यू	-10.0824
▁De	-10.0853
▁ಮನೆ	-10.086
ಿರಬಹುದು	-10.091
పాత	-10.096
▁নিজ	-10.0999
▁ಸುತ್ತ	-10.1038
पूर्व	-10.1068
▁ಪರಿಣಾಮ	-10.107
ক্ষণ	-10.109
▁తీర	-10.1094
ரியா	-10.1098
ಗೂ	-10.1104
ುವಂತೆ	-10.1106
ju	-10.1131
த்திலிருந்து	-10.114
▁এখন	-10.1146
▁ప్రభావ	-10.1148
▁তিন	-10.1149
▁पर्यटक	-10.115
▁முயற்சி	-10.115
▁வெப்ப	-10.115
মূলক	-10.115
േക്കാൾ	-10.115
▁USA	-10.115
▁affect	-10.115
▁common	-10.115
▁culture	-10.115
▁every	-10.115
▁provide	-10.115
▁system	-10.115
▁while	-10.115
▁अतिशय	-10.115
▁ओळख	-10.115
▁डायनासोर	-10.115
▁এলাকা	-10.115
▁গিয়েছিল	-10.115
▁নির্দিষ্ট	-10.115
▁পরিবর্তন	-10.115
▁ভাষা	-10.115
▁உயர	-10.115
▁பல்வேறு	-10.115
▁மீண்டும்	-10.115
▁விளையாட்டு	-10.115
▁చేశారు	-10.115
▁దగ్గర	-10.115
▁ಅಂಶ	-10.115
▁ಭೇಟಿ	-10.115
▁ಯುದ್ಧ	-10.115
▁അംഗ	-10.115
▁പ്രവർത്തന	-10.115
▁safe	-10.115
▁असल्याचे	-10.115
▁सुरक्षा	-10.115
▁পরিচিত	-10.115
▁ஏற்படுத்த	-10.115
▁వివిధ	-10.115
▁సంబంధ	-10.115
▁जास्त	-10.115
▁संख्या	-10.115
▁இன்று	-10.115
▁சுமார்	-10.115
▁ಒದಗಿಸ	-10.115
▁ಮಕ್ಕಳ	-10.115
▁व्यापार	-10.115
▁ಆಹಾರ	-10.115
▁ಹೆಸರ	-10.115
▁what	-10.115
▁প্রকাশ	-10.115
▁যুক্তরাষ্ট্র	-10.115
▁சென்ற	-10.115
▁കൂട്ട	-10.115
▁close	-10.115
▁हवाई	-10.115
▁ஜப்பான	-10.115
▁দেওয়া	-10.115
േഴ്	-10.115
వ్వ	-10.115
▁दोनों	-10.115
▁सहसा	-10.115
▁अभी	-10.115
▁vari	-10.115
▁చేసే	-10.115
పాటు	-10.115
▁নদী	-10.115
▁प्रवाह	-10.115
▁site	-10.115
▁చూప	-10.115
ದ್ದರಿಂದ	-10.115
▁வேலை	-10.115
ection	-10.1151
▁അതിനാൽ	-10.1151
▁ಭಾರ	-10.1152
▁II	-10.1152
▁lead	-10.1152
▁నిర్మ	-10.1152
▁नियम	-10.1152
▁ನಾವು	-10.1153
▁प्राणी	-10.1153
▁இருக்கலாம்	-10.1153
▁लेकर	-10.1154
ిస్తున్న	-10.1155
▁குறித்து	-10.1156
▁স্প	-10.1156
▁கடந்த	-10.1157
▁முழு	-10.1157
▁നദി	-10.1158
▁கருத்த	-10.1161
▁बनाए	-10.1164
മായിരുന്നു	-10.1165
ஜெ	-10.1166
▁होगा	-10.1173
▁കണ്ട	-10.1178
▁1000	-10.1179
▁মানুষের	-10.1188
▁14	-10.1194
▁দেশের	-10.12
▁आपण	-10.1202
▁சட்ட	-10.1205
▁കൈ	-10.1208
ాగ్	-10.1211
▁जिसे	-10.1222
भूत	-10.1228
▁वेग	-10.1233
മാക	-10.1235
▁ಈಗ	-10.1236
▁పోల	-10.126
▁దేశం	-10.1277
ുകൾക്ക്	-10.1288
▁ವೈ	-10.1291
াইট	-10.1295
వాద	-10.1314
▁সমা	-10.1349
িয়ান	-10.1366
▁ద్వీప	-10.1411
ாமல்	-10.1444
ின்றன	-10.1455
ுதல	-10.1457
▁ஸ்க	-10.1504
െയ്	-10.1521
▁വ്യ	-10.1564
ப்பது	-10.1607
▁സ്ഥാന	-10.1612
▁150	-10.165
র্ণ	-10.1683
▁ಡಾ	-10.1692
▁ദി	-10.1693
ಿದ್ದರೆ	-10.1701
ളുടെ	-10.1751
▁செயல	-10.1752
R	-10.1781
ೊಂದು	-10.1783
പ്പോൾ	-10.1794
▁রাত	-10.1795
▁அழைக்க	-10.1803
പോലെ	-10.1805
ಿರುತ್ತವೆ	-10.1806
▁आधार	-10.1811
▁ప్రపంచ	-10.1812
वर्तन	-10.1813
योजन	-10.1814
▁உருவ	-10.1816
ఉదాహరణ	-10.1816
ముఖ్యంగా	-10.1816
ತಂತ್ರ	-10.1816
▁1,000	-10.1816
▁1979	-10.1816
▁2011	-10.1816
▁government	-10.1816
▁group	-10.1816
▁कोणत्याही	-10.1816
▁दूसरी	-10.1816
▁परिस्थिती	-10.1816
▁पिरामिड	-10.1816
▁भिन्न	-10.1816
▁भूकंप	-10.1816
▁मौसम	-10.1816
▁वातावरण	-10.1816
▁विशिष्ट	-10.1816
▁व्यवहार	-10.1816
▁संस्कृति	-10.1816
▁গুরুত্বপূর্ণ	-10.1816
▁দেখতে	-10.1816
▁ধরণের	-10.1816
▁প্রাচীন	-10.1816
▁বলেছিলেন	-10.1816
▁যুদ্ধ	-10.1816
▁ஒவ்வொரு	-10.1816
▁கீழ்	-10.1816
▁விரும்ப	-10.1816
▁ఆహార	-10.1816
▁సంప్రదాయ	-10.1816
▁ಕೇವಲ	-10.1816
▁ನಡುವೆ	-10.1816
▁ನಿರ್ದಿಷ್ಟ	-10.1816
▁ಪ್ರಮಾಣ	-10.1816
▁ಮಾತ್ರ	-10.1816
▁ರಾತ್ರಿ	-10.1816
▁ಹತ್ತಿರ	-10.1816
▁ആയിരുന്നു	-10.1816
▁ഗതാഗത	-10.1816
▁റിപ്പോർട്ട്	-10.1816
▁വേണ്ടി	-10.1816
विज्ञान	-10.1816
ಾತ್ಮಕ	-10.1816
ത്തിലുള്ള	-10.1816
സ്ഥലത്ത	-10.1816
▁during	-10.1816
▁finish	-10.1816
▁result	-10.1816
▁बांध	-10.1816
▁बाजू	-10.1816
▁அனுமதி	-10.1816
▁அறிக்கை	-10.1816
▁செலுத்த	-10.1816
▁ಎಂದರೆ	-10.1816
▁ಚಿತ್ರ	-10.1816
दर्शन	-10.1816
জাপান	-10.1816
▁छोड़	-10.1816
▁பூமி	-10.1816
▁முடிவு	-10.1816
▁along	-10.1816
▁plant	-10.1816
सोबत	-10.1816
▁present	-10.1816
▁इसमें	-10.1816
▁सूर्य	-10.1816
▁south	-10.1816
साधारण	-10.1816
▁home	-10.1816
▁still	-10.1816
▁വ്യക്ത	-10.1816
▁due	-10.1816
▁நீர்	-10.1816
▁ശക്ത	-10.1816
▁നിയമ	-10.1816
▁खुद	-10.1816
▁find	-10.1816
▁அங்கு	-10.1816
▁ফুট	-10.1816
▁প্রযুক্তি	-10.1816
▁down	-10.1816
▁തീര	-10.1816
▁स्पष्ट	-10.1817
▁দূর	-10.1817
▁முடியும்	-10.1817
ദ്ര	-10.1817
▁സാധിക്ക	-10.1817
▁बाहर	-10.1817
▁എഴുത	-10.1817
▁তাঁর	-10.1817
▁শিকার	-10.1817
▁ലഭിക്ക	-10.1818
▁లేకుండా	-10.1818
▁ప్రభావిత	-10.1818
▁ബാധിക്ക	-10.1818
▁आपल्या	-10.1819
▁विविध	-10.1819
▁കുറഞ്ഞ	-10.1821
▁ക്യാ	-10.1822
▁2002	-10.1823
▁బయట	-10.1823
যোগ্য	-10.1823
ುತ್ತಿದ್ದರು	-10.1824
প্ত	-10.1824
▁ಹಿಮ	-10.1826
▁reported	-10.1826
ান্ড	-10.1826
▁దీనిని	-10.1827
▁say	-10.1828
▁केंद्रित	-10.1828
▁ದಿನ	-10.1828
களையும்	-10.1829
▁ಅವರನ್ನು	-10.1829
▁തന്റെ	-10.1829
▁തെക്ക	-10.183
ுகிறார்கள்	-10.183
ವಾಗುತ್ತದೆ	-10.1831
▁पाणी	-10.1831
▁city	-10.1831
ൊരു	-10.1832
▁ఎక్కువగా	-10.1833
▁असलेले	-10.1833
▁సర్వ	-10.1834
▁होतो	-10.1834
▁ನದಿ	-10.1834
▁ভালো	-10.1834
▁करण्याची	-10.1835
▁നല്ല	-10.1836
▁टिक	-10.1836
▁பணி	-10.184
▁নিজের	-10.1842
▁సహా	-10.1842
▁ಮೊದಲು	-10.1843
▁रात	-10.1843
▁ടോ	-10.1846
▁காரண	-10.1849
▁പുര	-10.1851
▁அவர	-10.1856
▁তাই	-10.1859
யிலிருந்து	-10.1861
▁किमी	-10.1865
▁सीमा	-10.1873
ress	-10.1886
ిస్తారు	-10.189
▁ಪ್ರಯಾಣ	-10.1911
▁குறைந்த	-10.1938
ிரம்	-10.1948
▁ವೇಗ	-10.2013
▁పోర	-10.2029
▁കൂടി	-10.2033
आर	-10.2076
▁মিল	-10.2098
▁जागा	-10.2156
ಾಗಿದೆ	-10.2186
▁കരുത	-10.2282
▁అధిక	-10.232
ஈ	-10.2337
▁ವರ್ಷಗಳ	-10.2359
ಿಸಬಹುದು	-10.2456
▁ಮಾರ್	-10.246
ার্ট	-10.2463
ுகின்றனர்	-10.2466
ൈറ്റ്	-10.2476
▁பேச	-10.2482
படுத்த	-10.2506
ಎನ್	-10.2506
கிறார்கள்	-10.2516
▁व्यक्ति	-10.253
▁உயிர	-10.253
উদাহরণ	-10.2531
അടിസ്ഥാനമാക്കിയ	-10.2531
▁नागरिक	-10.2531
▁माध्यम	-10.2531
▁रिपोर्ट	-10.2531
▁स्कीइंग	-10.2531
▁গবেষণা	-10.2531
▁বোঝা	-10.2531
▁தெரிவித்த	-10.2531
▁தேசிய	-10.2531
▁பரிந்துரை	-10.2531
▁ప్రవర్తన	-10.2531
▁ಜನಸಂಖ್ಯೆ	-10.2531
▁ಪರಿಗಣಿಸ	-10.2531
▁ಭಾಷೆ	-10.2531
▁ಸಂಖ್ಯೆ	-10.2531
▁ಸಂಸ್ಕೃತಿ	-10.2531
▁അടുത്ത	-10.2531
▁ആളുകള	-10.2531
▁തുടർന്ന	-10.2531
view	-10.2531
দর্শন	-10.2531
ವರೆಗೂ	-10.2531
അദ്ദേഹത്തിന്റെ	-10.2531
▁1959	-10.2531
▁German	-10.2531
▁before	-10.2531
▁countries	-10.2531
▁environment	-10.2531
▁million	-10.2531
▁research	-10.2531
▁अभ्यास	-10.2531
▁आधुनिक	-10.2531
▁जानकारी	-10.2531
▁तथापि	-10.2531
▁नियंत्रण	-10.2531
▁सैन्य	-10.2531
▁অথবা	-10.2531
▁উচিত	-10.2531
▁উপস্থিত	-10.2531
▁ঘোষণা	-10.2531
▁জার্মান	-10.2531
▁পরিবহন	-10.2531
▁পিরামিড	-10.2531
▁পুরুষ	-10.2531
▁শুধুমাত্র	-10.2531
▁அனுப்ப	-10.2531
▁காட்சி	-10.2531
▁சோதனை	-10.2531
▁தொழில்நுட்ப	-10.2531
▁అత్యంత	-10.2531
▁అర్థం	-10.2531
▁ఆయన	-10.2531
▁ఎందుకంటే	-10.2531
▁చివరి	-10.2531
▁పూర్తి	-10.2531
▁ప్రదర్శ	-10.2531
▁ముఖ్యమైన	-10.2531
▁రవాణా	-10.2531
▁వెళ్ల	-10.2531
▁సంస్కృతి	-10.2531
▁ಆದಾಗ್ಯೂ	-10.2531
▁ಎಂಬುದನ್ನು	-10.2531
▁ಎಚ್ಚರ	-10.2531
▁ಏಕೆಂದರೆ	-10.2531
▁ഉണ്ട്	-10.2531
ాత్మక	-10.2531
▁शिक्ष	-10.2531
▁পৌঁছ	-10.2531
▁இடங்களில்	-10.2531
▁ఏర్పడ	-10.2531
▁ನಿಮಗೆ	-10.2531
▁ಬಳಕೆ	-10.2531
▁വിനോദ	-10.2531
▁without	-10.2531
▁సమస్య	-10.2531
▁food	-10.2531
▁यदि	-10.2531
▁విధంగా	-10.2531
▁ಪರಿಸರ	-10.2531
▁മധ്യ	-10.2531
ഗ്രഹ	-10.2531
▁ध्यान	-10.2531
▁help	-10.2531
▁सोपे	-10.2531
▁त्यांचा	-10.2531
▁consider	-10.2531
▁ഒപ്പം	-10.2531
ത്തിനും	-10.2531
▁become	-10.2531
▁began	-10.2531
▁கணி	-10.2531
▁मदद	-10.2531
▁निवड	-10.2531
▁सुपर	-10.2531
▁Some	-10.2531
▁थांब	-10.2531
▁बड़ा	-10.2531
▁अधिकारी	-10.2531
▁जॉन	-10.2531
ंपैकी	-10.2531
▁పంప	-10.2531
▁జరుగుత	-10.2531
uper	-10.2531
▁जापान	-10.2532
▁எல்லா	-10.2532
▁ರೋಗ	-10.2533
▁name	-10.2533
▁दुर्	-10.2533
ವರೆಗೆ	-10.2533
▁शकता	-10.2533
▁ಜೊತೆಗೆ	-10.2533
▁சொல்	-10.2533
▁வேக	-10.2533
▁ടീമ	-10.2533
▁போலவே	-10.2534
▁ತೋರ	-10.2534
▁ರಾಜ್ಯ	-10.2535
▁ಹೇಳಿದರು	-10.2535
▁কর্ম	-10.2536
▁பார்வை	-10.2536
▁मदत	-10.2536
▁फोन	-10.2538
▁முக்கியமான	-10.2539
▁సైట్	-10.2539
put	-10.254
▁गिर	-10.254
▁பேர்	-10.254
socia	-10.254
▁দুই	-10.2543
▁ತಿಳಿ	-10.2546
▁அதற்கு	-10.2546
▁इसकी	-10.2548
▁If	-10.2551
▁भागात	-10.2552
W	-10.2553
ഒ	-10.2555
▁దానిని	-10.2556
▁প্রতিটি	-10.2558
▁लोकांना	-10.256
▁cover	-10.2564
ത്തിലും	-10.2564
▁மேல்	-10.2564
ctor	-10.2564
்பர்	-10.2567
▁वाला	-10.2567
▁areas	-10.2569
ಿಸಿಕೊಂಡ	-10.2574
▁सुविधा	-10.2574
▁set	-10.2593
▁ప్రత్యేక	-10.2594
▁फ्र	-10.2604
▁ಕ್ರಿ	-10.2611
▁చేసుకో	-10.2615
ಎಸ್	-10.266
▁விழ	-10.2664
▁நிலையில்	-10.268
లేని	-10.2692
▁পায়	-10.2724
మైనది	-10.2727
▁இரண்ட	-10.2757
▁ಜೀವ	-10.2796
▁ಬ್ಯಾ	-10.2817
জাত	-10.2867
ിച്ചിരുന്ന	-10.2878
స్తారు	-10.2898
▁ಆಫ್ರಿಕಾದ	-10.2911
▁विषय	-10.2944
आधी	-10.3011
▁பயன்படுத்தி	-10.3064
▁ಹೊಂದಿದ್ದ	-10.3115
ല്‍	-10.3165
▁స్క	-10.3231
▁ವ್ಯವಸ್ಥೆ	-10.3261
▁అతిపెద్ద	-10.3263
▁ಭೂ	-10.3275
▁நிகழ்	-10.3281
ನ್ನೂ	-10.3297
ক্ষেত্র	-10.3298
▁സന്ദർശി	-10.33
▁সতর্ক	-10.33
▁வாழ்	-10.33
CEP	-10.33
METI	-10.33
উচ্চ	-10.33
ভূমি	-10.33
ுவதற்கான	-10.33
ట్లయితే	-10.33
సాంకేతిక	-10.33
ಠ	-10.33
▁2016	-10.33
▁United	-10.33
▁ZMapp	-10.33
▁important	-10.33
▁matter	-10.33
▁period	-10.33
▁population	-10.33
▁अधिकांश	-10.33
▁अध्ययन	-10.33
▁अस्पताल	-10.33
▁ऐसा	-10.33
▁दृश्य	-10.33
▁नुकसान	-10.33
▁पुढे	-10.33
▁पोहोच	-10.33
▁महासागर	-10.33
▁वन्यजीव	-10.33
▁वस्तू	-10.33
▁অবস্থিত	-10.33
▁অস্ট্রেলিয়া	-10.33
▁আচরণ	-10.33
▁আমেরিকা	-10.33
▁খুঁজে	-10.33
▁দুর্ঘটনা	-10.33
▁বন্ধ	-10.33
▁সেখানে	-10.33
▁எடுத்து	-10.33
▁கடுமையான	-10.33
▁கிழக்கு	-10.33
▁முழுவதும்	-10.33
▁పిరమిడ్	-10.33
▁ప్రక్రియ	-10.33
▁సందర్శ	-10.33
▁సిద్ధాంత	-10.33
▁సుమారు	-10.33
▁ಅಧ್ಯಕ್ಷ	-10.33
▁ಅಪಘಾತ	-10.33
▁ನಡೆದ	-10.33
▁ಪುರುಷರ	-10.33
▁ವಾಹನ	-10.33
▁ഉയർന്ന	-10.33
▁ദേശീയ	-10.33
▁control	-10.33
▁member	-10.33
▁तंत्रज्ञान	-10.33
▁तापमान	-10.33
▁पिरॅमिड	-10.33
▁बेहतर	-10.33
▁অনুষ্ঠান	-10.33
▁গঠন	-10.33
▁পণ্য	-10.33
▁பூங்கா	-10.33
▁மருத்துவமனை	-10.33
▁పదార్థ	-10.33
▁పరిశోధన	-10.33
▁ദിവസ	-10.33
▁ഭാഷ	-10.33
▁മേഖല	-10.33
▁North	-10.33
▁three	-10.33
▁पहाड़	-10.33
▁विभाग	-10.33
▁स्थिर	-10.33
▁শিশু	-10.33
▁അനുഭവ	-10.33
▁States	-10.33
▁पर्वत	-10.33
▁रात्री	-10.33
▁খাবার	-10.33
▁মিনিট	-10.33
▁शायद	-10.33
▁अच्छा	-10.33
▁మంచి	-10.33
▁तेव्हा	-10.33
▁இடத்தில்	-10.33
▁இடத்தை	-10.33
▁ക്രിസ്	-10.33
▁ஆவண	-10.33
▁పేరు	-10.33
▁indicat	-10.33
▁पंख	-10.33
▁बताया	-10.33
▁मूळ	-10.33
▁వలన	-10.33
▁प्राण्यां	-10.33
▁दिली	-10.33
▁पूरी	-10.33
▁वर्ग	-10.33
ল্ড	-10.33
స్తూ	-10.33
▁look	-10.33
▁అదే	-10.33
▁গ্রহণ	-10.33
▁पूरा	-10.33
▁প্রদান	-10.33
▁सड़क	-10.33
▁ఇక్కడ	-10.33
▁नोंद	-10.33
▁तकनीक	-10.33
▁चित्र	-10.33
▁യുഎസ്	-10.33
▁சார்ந்த	-10.3301
▁స్థానిక	-10.3301
▁brea	-10.3301
▁নেওয়া	-10.3301
▁change	-10.3301
▁long	-10.3301
▁महत्वपूर्ण	-10.3301
▁ఇచ్చ	-10.3301
▁allow	-10.3301
▁మార్గం	-10.3301
▁जपान	-10.3301
কূল	-10.3301
ಲ್ಪಟ್ಟ	-10.3302
▁বন্য	-10.3302
യിലുള്ള	-10.3302
▁योजना	-10.3302
▁interest	-10.3302
▁यांचा	-10.3303
▁air	-10.3303
▁चीज़	-10.3303
▁കുറിച്ച്	-10.3303
▁அளிக்க	-10.3304
ಶೀಲ	-10.3304
ങ്ങള്‍	-10.3305
▁cause	-10.3305
▁ಹೊಂದಿದೆ	-10.3305
▁ಹೊಂದಿರುವ	-10.3306
▁उसकी	-10.3306
▁त्यानंतर	-10.3306
▁நாம்	-10.3307
ವಾಯಿತು	-10.3307
▁വഴി	-10.3308
▁ಪ್ರಕಾರ	-10.3309
ಗಿಂತ	-10.331
▁యూ	-10.331
▁घटना	-10.3312
▁जहाज	-10.3313
▁तरीके	-10.3313
▁now	-10.3313
▁लोकांनी	-10.3314
पैकी	-10.3316
▁करण्यास	-10.3317
▁நோக்க	-10.3318
ಷ್ಟೇ	-10.332
▁എന്നാണ്	-10.332
▁जिसका	-10.332
▁मिळाल	-10.3328
ಾರ್ಡ್	-10.3333
ಎ	-10.3376
வ்வ	-10.3377
K	-10.3383
F	-10.3387
▁come	-10.3412
▁वाटत	-10.3455
▁मानक	-10.351
▁ஈர	-10.3513
இல்	-10.3596
मिळ	-10.3601
वेळी	-10.3602
ायला	-10.3607
▁आर्	-10.3633
ിരുന്നില്ല	-10.3654
▁മാത്രമല്ല	-10.3721
▁പഠന	-10.3859
ट्री	-10.3886
▁ஆண்	-10.3982
oke	-10.4003
ుకోవడం	-10.4035
विध	-10.4066
ಭೂಮಿ	-10.4076
▁ভিত্তি	-10.4078
▁പുന	-10.4099
▁know	-10.4118
முடிய	-10.4121
▁गति	-10.4128
▁सुरु	-10.4131
▁తప్ప	-10.4133
ധാരണ	-10.4133
গ্রহ	-10.4133
▁general	-10.4133
दर्शक	-10.4133
बरोबर	-10.4133
পূর্ণ	-10.4133
കേന്ദ്ര	-10.4133
ശ്രദ്ധ	-10.4133
▁1940	-10.4133
▁NPWS	-10.4133
▁Roman	-10.4133
▁दिवस	-10.4133
▁वनस्पती	-10.4133
▁সদস্য	-10.4133
▁குறிப்பிட்ட	-10.4133
▁நிகழ்ச்சி	-10.4133
▁நுழை	-10.4133
▁పోలీసు	-10.4133
▁ప్రకటన	-10.4133
▁ప్రవేశ	-10.4133
▁ಜನಪ್ರಿಯ	-10.4133
▁ಪ್ರಾಂತ್ಯ	-10.4133
▁ಸಮಸ್ಯೆ	-10.4133
▁ಸ್ಥಾಪಿಸ	-10.4133
▁ഉത്തര	-10.4133
▁പ്രാദേശിക	-10.4133
▁സാഹചര്യ	-10.4133
ब्लॉग	-10.4133
स्वरूप	-10.4133
ೀಕರಣ	-10.4133
വ്യാപകമായ	-10.4133
ുകയാണെങ്കിൽ	-10.4133
▁$100	-10.4133
▁America	-10.4133
▁Earth	-10.4133
▁East	-10.4133
▁Most	-10.4133
▁children	-10.4133
▁document	-10.4133
▁follow	-10.4133
▁pyramid	-10.4133
▁understand	-10.4133
▁अत्यंत	-10.4133
▁अध्यक्ष	-10.4133
▁आफ्रिके	-10.4133
▁आरोप	-10.4133
▁इंटरनेट	-10.4133
▁उम्मीद	-10.4133
▁ऊर्जा	-10.4133
▁पीछे	-10.4133
▁प्रणाली	-10.4133
▁प्रदेश	-10.4133
▁प्राथमिक	-10.4133
▁बच्चे	-10.4133
▁मुक्त	-10.4133
▁रेडियो	-10.4133
▁वाहतूक	-10.4133
▁অনুযায়ী	-10.4133
▁গঠিত	-10.4133
▁ঘটনা	-10.4133
▁চেষ্টা	-10.4133
▁জিনিস	-10.4133
▁তত্ত্ব	-10.4133
▁নিয়ন্ত্রণ	-10.4133
▁পুলিশ	-10.4133
▁ব্যবহৃত	-10.4133
▁সংখ্যা	-10.4133
▁সমস্যা	-10.4133
▁அவற்றின்	-10.4133
▁உணர	-10.4133
▁கொள்கை	-10.4133
▁சமூக	-10.4133
▁தகவல்	-10.4133
▁தண்ணீர	-10.4133
▁பூச்சி	-10.4133
▁అలాగే	-10.4133
▁ఆసక్త	-10.4133
▁పర్యాటక	-10.4133
▁పర్వత	-10.4133
▁భాగం	-10.4133
▁సంవత్సరం	-10.4133
▁సులభంగా	-10.4133
▁ಪಿರಮಿಡ್	-10.4133
▁ಬಹುತೇಕ	-10.4133
▁ಲ್ಯಾಂಡ್	-10.4133
▁ವಸ್ತುಗಳ	-10.4133
▁ಹಿಂದಿನ	-10.4133
▁കുട്ടികള	-10.4133
▁ചിത്ര	-10.4133
▁നിന്നുള്ള	-10.4133
▁മനസ്സിലാക്ക	-10.4133
നിർദ്ദേശ	-10.4133
▁host	-10.4133
▁tradition	-10.4133
▁पुलिस	-10.4133
▁सिस्टम	-10.4133
▁இறுதி	-10.4133
▁చిత్ర	-10.4133
सारखी	-10.4133
▁open	-10.4133
▁छोटी	-10.4133
▁हजारो	-10.4133
▁కలిసి	-10.4133
▁నిలిచ	-10.4133
▁నీటి	-10.4133
▁భాష	-10.4133
▁സമീപ	-10.4133
▁जेव्हा	-10.4133
▁ಮೂರು	-10.4133
▁പുറത്ത	-10.4133
▁करण्याचा	-10.4133
▁येईल	-10.4133
▁ব্যাপক	-10.4133
▁ஆண்டில்	-10.4133
▁law	-10.4133
▁ಆಗಿದೆ	-10.4133
▁ಕೀಟ	-10.4133
▁things	-10.4133
▁அமைதி	-10.4133
▁जबकि	-10.4133
▁यहाँ	-10.4133
▁वाहन	-10.4133
▁கப்பல	-10.4133
▁লেখা	-10.4133
▁தோல்	-10.4133
▁(2)	-10.4133
यूएस	-10.4133
▁இலக்க	-10.4133
▁cases	-10.4133
▁न्यू	-10.4133
▁துணை	-10.4133
▁मंत्र	-10.4133
▁இடம்	-10.4133
▁ঘটে	-10.4134
▁वापस	-10.4134
▁রাখা	-10.4134
▁సూచించ	-10.4134
▁মুখ	-10.4134
▁those	-10.4134
▁region	-10.4134
▁ಕರೆಯಲಾಗುತ್ತದೆ	-10.4134
▁స్థానంలో	-10.4134
मंडल	-10.4134
▁पालन	-10.4134
▁சாலை	-10.4134
▁সঙ্গে	-10.4134
▁തോന്ന	-10.4134
बॉल	-10.4135
▁ಸಂಬಂಧಿಸಿದ	-10.4135
▁प्रथम	-10.4135
▁உங்களுக்கு	-10.4135
▁ಬಹಳಷ್ಟು	-10.4135
▁കൊണ്ടു	-10.4135
▁hand	-10.4135
▁நடந்த	-10.4136
▁road	-10.4136
▁மீது	-10.4136
▁ಒಬ್ಬ	-10.4136
లాండ్	-10.4136
▁निकाल	-10.4137
▁கொண்டுள்ளது	-10.4138
ிருக்கும்	-10.4138
▁এখনও	-10.4139
▁ಸಾರಿಗೆ	-10.4139
▁বাড়ি	-10.4139
▁ഇപ്പോൾ	-10.4139
▁नॉर्	-10.4139
▁మొదల	-10.414
▁లాగా	-10.4141
▁আইন	-10.4141
▁எனவே	-10.4142
▁நபர்	-10.4144
▁அவர்களின்	-10.4145
ുന്നതിനും	-10.4147
▁അവർക്ക്	-10.4149
▁दिले	-10.4154
தொடர்	-10.4187
▁टाक	-10.4237
ித்தார்	-10.4281
ఇ	-10.4299
অ	-10.43
▁മറ്റു	-10.4315
ఎ	-10.4323
ೃತ	-10.4331
▁ಮ್ಯಾ	-10.4359
▁വിഭാഗ	-10.4367
্বাস	-10.4392
ിരിക്കും	-10.4431
മതി	-10.4615
ಿಕೊಳ್ಳುವ	-10.4633
▁वाच	-10.4654
▁ద్వీపాల	-10.4665
▁पश्चिम	-10.4699
্যান্ট	-10.47
▁ಸುಲಭವಾಗಿ	-10.4827
▁develop	-10.4855
igh	-10.4907
▁পথ	-10.4986
▁അധിക	-10.5008
പ്പെടുത്തി	-10.5025
ঙ	-10.5027
▁how	-10.5028
▁உங்கள	-10.5029
ಾಯಿತು	-10.5031
▁যোগ	-10.5033
▁సమయం	-10.5036
పోయి	-10.5038
▁ಸಂಬಂಧ	-10.5041
▁వ్యక్తి	-10.5042
▁ಅಧಿಕಾರ	-10.5042
শিল্প	-10.5042
▁major	-10.5042
▁इतिहास	-10.5042
▁उंच	-10.5042
▁क्रमांक	-10.5042
▁আকর্ষণ	-10.5042
▁উপাদান	-10.5042
▁থাকতে	-10.5042
▁দ্বিতীয়	-10.5042
▁পরিস্থিতি	-10.5042
▁ব্যর্থ	-10.5042
▁সর্ব	-10.5042
▁সেন্ট	-10.5042
▁அமைந்துள்ள	-10.5042
▁ஆப்பிரிக்க	-10.5042
▁குடும்ப	-10.5042
▁சுற்றுலா	-10.5042
▁புகைப்பட	-10.5042
▁மிகப்பெரிய	-10.5042
▁விஷயங்கள	-10.5042
▁అభివృద్ధి	-10.5042
▁గాయపడ	-10.5042
▁తూర్పు	-10.5042
▁తెలియ	-10.5042
▁దూరం	-10.5042
▁నిర్ణయ	-10.5042
▁మిలియన్	-10.5042
▁రేడియో	-10.5042
▁ಅಭಿವೃದ್ಧಿ	-10.5042
▁ಆಯ್ಕೆ	-10.5042
▁ಕಳುಹಿಸ	-10.5042
▁ಕುಟುಂಬ	-10.5042
▁ತೆಗೆದುಕೊಳ್ಳ	-10.5042
▁ಪ್ರಕ್ರಿಯೆ	-10.5042
▁ವ್ಯತ್ಯಾಸ	-10.5042
▁ദക്ഷിണാഫ്രിക്ക	-10.5042
▁പെരുമാറ്റ	-10.5042
ological	-10.5042
सांस्कृतिक	-10.5042
বিজ্ঞান	-10.5042
ிடமிருந்து	-10.5042
టువంటి	-10.5042
ಪೂರ್ಣ	-10.5042
ಸಾಂಪ್ರದಾಯಿಕ	-10.5042
ത്തോടെ	-10.5042
▁ASUS	-10.5042
▁Australia	-10.5042
▁DNA	-10.5042
▁USOC	-10.5042
▁behavior	-10.5042
▁century	-10.5042
▁damage	-10.5042
▁example	-10.5042
▁experience	-10.5042
▁feature	-10.5042
▁number	-10.5042
▁similar	-10.5042
▁usually	-10.5042
▁अतिरिक्त	-10.5042
▁अफ़्रीक	-10.5042
▁उद्यान	-10.5042
▁दोन्ही	-10.5042
▁परंपरा	-10.5042
▁परिवहन	-10.5042
▁बच्चों	-10.5042
▁बाहेर	-10.5042
▁मृत्यू	-10.5042
▁येथील	-10.5042
▁वर्तमान	-10.5042
▁संशोधन	-10.5042
▁समाप्त	-10.5042
▁स्वीडन	-10.5042
▁हालांकि	-10.5042
▁অন্তর্ভুক্ত	-10.5042
▁উল্লেখ	-10.5042
▁কখনও	-10.5042
▁ক্ষমতা	-10.5042
▁চিহ্ন	-10.5042
▁চুক্তি	-10.5042
▁দীর্ঘ	-10.5042
▁নিরাপদ	-10.5042
▁নির্বাচন	-10.5042
▁ভোট	-10.5042
▁শান্তি	-10.5042
▁সর্বাধিক	-10.5042
▁সুন্দর	-10.5042
▁হাসপাতালে	-10.5042
▁ஆராய்ச்சி	-10.5042
▁இன்னும்	-10.5042
▁ஏனெனில்	-10.5042
▁பாதுகாப்பு	-10.5042
▁வேண்டிய	-10.5042
▁కొనసాగ	-10.5042
▁చేసింది	-10.5042
▁జాతీయ	-10.5042
▁ప్రకటించ	-10.5042
▁ಅತಿದೊಡ್ಡ	-10.5042
▁ತುಂಬಾ	-10.5042
▁ನಿಯಂತ್ರಣ	-10.5042
▁ಪ್ರತ್ಯೇಕ	-10.5042
▁ಪ್ರವಾಸಿಗರ	-10.5042
▁ಸಂಪರ್ಕ	-10.5042
▁ಸದಸ್ಯರ	-10.5042
▁കഴിവ	-10.5042
▁പരാജയ	-10.5042
▁വിവിധ	-10.5042
▁സൃഷ്ടി	-10.5042
▁women	-10.5042
▁क्षमता	-10.5042
▁लिहि	-10.5042
▁তখন	-10.5042
▁ஒன்றாக	-10.5042
▁கடற்கரை	-10.5042
▁பாதிக்கப்பட்ட	-10.5042
▁బీచ్	-10.5042
▁శక్తి	-10.5042
▁ಕಡೆಗೆ	-10.5042
▁ಸಾಕಷ್ಟು	-10.5042
▁ಹೊಂದಿವೆ	-10.5042
▁ഡ്രൈവ	-10.5042
▁ലഭ്യമ	-10.5042
▁could	-10.5042
▁आणखी	-10.5042
▁आबादी	-10.5042
▁इच्छा	-10.5042
▁जखमी	-10.5042
▁भेज	-10.5042
▁शांति	-10.5042
▁পার্ক	-10.5042
▁প্রবেশ	-10.5042
▁குறைவாக	-10.5042
▁ఉందని	-10.5042
▁ಪಂದ್ಯ	-10.5042
▁പോലും	-10.5042
ముద్ర	-10.5042
▁वहाँ	-10.5042
▁ಬೆಳೆ	-10.5042
▁ಸೈಟ್	-10.5042
▁since	-10.5042
▁wild	-10.5042
▁आढळ	-10.5042
▁ತಲುಪ	-10.5042
▁এমনকি	-10.5042
▁விபத்து	-10.5042
▁ಎತ್ತರ	-10.5042
▁ಸೇವೆ	-10.5042
▁अगदी	-10.5042
▁வடக்கு	-10.5042
▁ऊँच	-10.5042
▁क्रिया	-10.5042
▁వ్యాధి	-10.5042
▁फैला	-10.5042
▁feet	-10.5042
▁গেলে	-10.5042
▁പ്രത്യേകിച്ച്	-10.5042
বহুল	-10.5042
ॅक्स	-10.5042
▁house	-10.5042
▁few	-10.5042
▁বাইরে	-10.5042
▁கட்டுப்பாட	-10.5042
▁என்ன	-10.5042
▁जाईल	-10.5042
▁स्तर	-10.5043
▁വർഷത്ത	-10.5043
▁ವಿಭಾಗ	-10.5043
পত্র	-10.5043
▁பெயர்	-10.5043
▁ಸಸ್ಯ	-10.5043
▁വിജയ	-10.5043
స్తే	-10.5043
ുന്നതിനുള്ള	-10.5043
▁activ	-10.5043
लँड	-10.5043
▁ಸ್ಕೀ	-10.5043
▁game	-10.5043
▁খেলা	-10.5043
▁మొక్కల	-10.5043
▁ಅವನ	-10.5043
▁term	-10.5044
മാർഗ്ഗ	-10.5044
▁ప్రదేశం	-10.5044
▁திரும்ப	-10.5045
▁పనిచేస్త	-10.5045
▁जिथे	-10.5045
▁India	-10.5046
▁तत्व	-10.5046
▁ഫ്ല	-10.5046
▁വൈക	-10.5046
▁வாங்க	-10.5047
▁ದೃ	-10.5047
▁ক্ল	-10.5047
▁ಚರ್ಚ	-10.5047
▁ಕಾಂಗ್	-10.5047
▁ஆண்டுகளுக்கு	-10.5047
▁ప్రపంచంలో	-10.5048
▁নেই	-10.5048
▁came	-10.5049
▁যত	-10.5049
▁ఒక్క	-10.5049
मेंट	-10.5049
▁ఉండవచ్చు	-10.5049
▁చట్ట	-10.5049
പോർട്ട	-10.5053
▁ಬಳಿ	-10.5055
▁మార్గాల	-10.5063
▁அடைய	-10.5063
్డారు	-10.5067
▁தவிர	-10.5069
▁मिळव	-10.5069
ఎస్	-10.5077
formation	-10.508
▁ক্রি	-10.5082
ాక్స్	-10.5113
▁இருப்ப	-10.512
▁पेश	-10.5202
▁ಕ್ರಮ	-10.5233
ಆ	-10.5296
▁വരുന്ന	-10.5319
സ്ഥാനം	-10.5331
ম্যান	-10.5397
बुश	-10.54
ಪ್ರಾಣಿಗಳ	-10.5543
ांपेक्षा	-10.5746
கலாச்சார	-10.5812
▁ಪ್ರಯತ್ನಿಸ	-10.5829
▁శాస్త్ర	-10.5912
▁தொடர	-10.5913
ుతూ	-10.5925
▁योग	-10.5947
▁அடிப்படை	-10.5988
ಪಟ್ಟಿ	-10.6003
▁व्यक्त	-10.6014
▁जर्मन	-10.6014
▁உணவ	-10.6028
ഠ	-10.604
▁महत्व	-10.6041
▁Japan	-10.6042
▁സുരക്ഷിതമാ	-10.6042
▁कार्बन	-10.6042
▁सैनिक	-10.6042
▁விளையாட	-10.6042
▁నిర్ధారించ	-10.6042
▁ಗುಂಪು	-10.6042
▁ಸಂಶೋಧನೆ	-10.6042
▁ಸಿದ್ದಾಂತ	-10.6042
बद्दल	-10.6042
க்கூடும்	-10.6042
ப்பகுதி	-10.6042
కుటుంబ	-10.6042
ವೈಜ್ಞಾನಿಕ	-10.6042
▁Middle	-10.6042
▁National	-10.6042
▁appea	-10.6042
▁better	-10.6042
▁class	-10.6042
▁disease	-10.6042
▁family	-10.6042
▁keep	-10.6042
▁learning	-10.6042
▁normal	-10.6042
▁process	-10.6042
▁received	-10.6042
▁remain	-10.6042
▁several	-10.6042
▁snow	-10.6042
▁support	-10.6042
▁thousand	-10.6042
▁उनका	-10.6042
▁कंजर	-10.6042
▁कोणतीही	-10.6042
▁खाद्य	-10.6042
▁चुनाव	-10.6042
▁ज़रूरत	-10.6042
▁निश्चित	-10.6042
▁पर्यावरण	-10.6042
▁पारंपरिक	-10.6042
▁भोजन	-10.6042
▁मंदिर	-10.6042
▁मृत्यु	-10.6042
▁म्हटले	-10.6042
▁वास्तव	-10.6042
▁शुल्क	-10.6042
▁संगठन	-10.6042
▁सामाजिक	-10.6042
▁सार्वजनिक	-10.6042
▁सूचना	-10.6042
▁स्टेट्स	-10.6042
▁অতিরিক্ত	-10.6042
▁অল্প	-10.6042
▁আবহাওয়া	-10.6042
▁আলাদা	-10.6042
▁কঠিন	-10.6042
▁জনপ্রিয়	-10.6042
▁জানিয়েছে	-10.6042
▁দিয়েছিলেন	-10.6042
▁দ্রুত	-10.6042
▁পরিকল্পনা	-10.6042
▁প্রক্রিয়া	-10.6042
▁বর্তমান	-10.6042
▁বিরুদ্ধে	-10.6042
▁ভারত	-10.6042
▁মৃত্যু	-10.6042
▁রিপোর্ট	-10.6042
▁সমুদ্র	-10.6042
▁সম্পূর্ণ	-10.6042
▁সৃষ্টি	-10.6042
▁ஆஸ்திரேலிய	-10.6042
▁இல்லாமல்	-10.6042
▁சூரிய	-10.6042
▁திட்டமிட	-10.6042
▁தொடர்புடைய	-10.6042
▁தோன்ற	-10.6042
▁நான்கு	-10.6042
▁பனிச்சறுக்கு	-10.6042
▁பயிற்சி	-10.6042
▁பேருந்து	-10.6042
▁பொறுத்த	-10.6042
▁ரோமானிய	-10.6042
▁வெற்றி	-10.6042
▁అందుబాటులో	-10.6042
▁అయినప్పటికీ	-10.6042
▁ఏర్పాటు	-10.6042
▁ఐరోపా	-10.6042
▁కాబట్టి	-10.6042
▁పరిస్థితుల	-10.6042
▁మంచు	-10.6042
▁రేసు	-10.6042
▁శతాబ్దం	-10.6042
▁సంఖ్య	-10.6042
▁సంబంధించిన	-10.6042
▁సురక్షిత	-10.6042
▁ಅಂದರೆ	-10.6042
▁ಉಳಿದ	-10.6042
▁ಕಂಪನಿಯ	-10.6042
▁ಕಾರ್ಯಕ್ರಮ	-10.6042
▁ಘೋಷಿಸ	-10.6042
▁ಜರ್ಮನಿ	-10.6042
▁ತಂತ್ರಜ್ಞಾನ	-10.6042
▁ತೀವ್ರ	-10.6042
▁ನಿರ್ಧರಿಸ	-10.6042
▁ಪ್ರತಿಕ್ರಿಯೆ	-10.6042
▁ಪ್ರಪಂಚದ	-10.6042
▁ಮುಚ್ಚ	-10.6042
▁ಯುನೈಟೆಡ್	-10.6042
▁ಯೋಜನೆ	-10.6042
▁ಸ್ಟೇಟ್ಸ್	-10.6042
▁അളവ	-10.6042
▁ആഫ്രിക്ക	-10.6042
▁കുടുംബ	-10.6042
▁ഗവേഷണ	-10.6042
▁ഘടക	-10.6042
▁പുരാതന	-10.6042
▁പോലീസ്	-10.6042
▁യഥാർത്ഥ	-10.6042
▁റേഡിയോ	-10.6042
▁സാങ്കേതിക	-10.6042
স্বরূপ	-10.6042
சாதாரண	-10.6042
ദ്യോഗിക	-10.6042
നിർണ്ണയ	-10.6042
▁easy	-10.6042
▁local	-10.6042
▁मोठी	-10.6042
▁शर्यत	-10.6042
▁ধারণা	-10.6042
▁পরিমাণ	-10.6042
▁প্রত্যেক	-10.6042
▁রাজ্য	-10.6042
▁সুপার	-10.6042
▁பாரம்பரிய	-10.6042
▁ఎయిర్	-10.6042
▁ಪ್ರಧಾನ	-10.6042
▁ಹವಾಮಾನ	-10.6042
▁ബ്രിട്ട	-10.6042
▁आक्रमण	-10.6042
▁सुमारे	-10.6042
▁করছেন	-10.6042
▁তথ্য	-10.6042
▁রোমান	-10.6042
▁சிறு	-10.6042
▁பிரமிடு	-10.6042
▁గుర్తించ	-10.6042
▁ಅಧಿಕಾರಿಗಳು	-10.6042
▁ഓഫ്	-10.6042
▁കമ്പനി	-10.6042
▁കിഴക്ക	-10.6042
▁താൽപ്പര്യ	-10.6042
▁early	-10.6042
▁বিড়াল	-10.6042
▁শক্তি	-10.6042
▁সহজেই	-10.6042
▁பாதிப்பு	-10.6042
▁కనిపించ	-10.6042
▁పోటీ	-10.6042
▁അവസ്ഥ	-10.6042
బ్యాక్	-10.6042
▁course	-10.6042
▁असल्याने	-10.6042
▁சொந்த	-10.6042
▁ನಮಗೆ	-10.6042
যাত্রা	-10.6042
▁গেছে	-10.6042
▁నీరు	-10.6042
▁ಕೇಳ	-10.6042
ುತ್ತೇವೆ	-10.6042
▁अच्छी	-10.6042
▁सम्मान	-10.6042
▁ರಂದು	-10.6042
▁മൈൽ	-10.6042
শিক্ষা	-10.6042
▁much	-10.6042
▁त्यांची	-10.6042
▁मांजर	-10.6042
▁ನೀರು	-10.6042
▁ಶುರು	-10.6042
▁trip	-10.6042
▁মাত্র	-10.6042
▁பந்தயத்த	-10.6042
▁பின்பு	-10.6042
▁दिए	-10.6042
▁കായിക	-10.6042
▁మొత్తం	-10.6042
ಬೇಕಾದ	-10.6042
வரிசை	-10.6042
▁ಇದಕ್ಕೆ	-10.6042
▁প্রজাতি	-10.6042
▁ಅನುಭವ	-10.6042
▁ಸರಳ	-10.6042
▁আশা	-10.6042
▁पकड़	-10.6042
अ‍ॅ	-10.6042
▁வளர்ச்சி	-10.6042
▁मामले	-10.6043
ಚೀನಾ	-10.6043
▁दिला	-10.6043
▁தொடர்பு	-10.6043
▁നിർമ്മിക്ക	-10.6043
ிலேயே	-10.6043
▁பிடித்த	-10.6043
▁मतदान	-10.6043
▁സസ്യ	-10.6043
▁गायक	-10.6043
▁ప్రదేశాల	-10.6043
▁दुकान	-10.6043
▁कानून	-10.6043
▁చేస్తుంది	-10.6043
▁उपग्रह	-10.6043
▁ಸೇರಿದಂತೆ	-10.6043
▁നടന്ന	-10.6044
▁ప్రభుత్వం	-10.6044
▁தேதி	-10.6044
▁ವಾಸಿಸ	-10.6044
▁ಪರಿಸ್ಥಿತಿ	-10.6044
▁ಮಹಿಳೆಯರ	-10.6044
ক্রে	-10.6044
প্রতিষ্ঠা	-10.6044
▁வயது	-10.6045
▁చూస	-10.6045
▁பெரு	-10.6045
▁దారి	-10.6045
▁കാണാന	-10.6045
▁खरीद	-10.6046
ಿರಲಿಲ್ಲ	-10.6046
▁race	-10.6046
▁നിയന്ത്രണ	-10.6049
కోవడానికి	-10.6049
ీక్ష	-10.605
▁बचाव	-10.605
▁offer	-10.6051
self	-10.6052
▁फ़्र	-10.6056
▁பேர	-10.6059
▁இயக்க	-10.6061
▁river	-10.6071
▁लावल	-10.6071
ుతారు	-10.6087
க்கொண்ட	-10.6104
▁தொடர்ந்த	-10.6109
▁வைத்திரு	-10.6118
▁ದುರ	-10.612
পথে	-10.6132
▁ಭೂಮಿಯ	-10.6148
▁അറിയപ്പെടുന്ന	-10.6174
▁आवाज	-10.6198
▁നിരീക്ഷ	-10.6232
▁റോഡ	-10.6234
र्जन	-10.6245
രാജ്യങ്ങള	-10.6393
ஏ	-10.6408
▁ಹೆಚ್ಚಾಗಿ	-10.641
ಇ	-10.641
▁ಹೆಚ್ಚ	-10.6424
ಿಕೊಂಡು	-10.6427
▁आधीच	-10.6442
ಾಂಕ	-10.6492
▁ಮಾಡಿಕೊಳ್ಳ	-10.6515
▁കാണപ്പെട	-10.6551
▁ಪ್ರಾರಂಭಿಸ	-10.6597
▁సామ	-10.6622
▁ಹೊಂದಿರ	-10.6707
▁വേഗത	-10.6759
ട്രി	-10.683
▁ఫ్ల	-10.6925
ப்பதை	-10.6934
▁സിറ്റി	-10.6974
ിംങ്	-10.7003
त्मक	-10.7015
ಿಸಲಾಗಿದೆ	-10.702
▁पत्	-10.705
வெளிய	-10.7071
ಪ್ರವೇಶ	-10.7081
▁संदर्भ	-10.7091
▁అందిస్త	-10.7101
▁ஆகிய	-10.7127
ः	-10.7132
▁report	-10.7137
▁ಜೊತೆ	-10.7149
युक्त	-10.715
ప్రభుత్వ	-10.7152
▁പൊതു	-10.7153
▁ವಾತಾವರಣ	-10.7153
▁സിദ്ധാന്ത	-10.7153
establish	-10.7153
বিচ্ছিন্ন	-10.7153
ಯಂತ್ರ	-10.7153
▁require	-10.7153
▁satellite	-10.7153
▁अनुकूल	-10.7153
▁घायल	-10.7153
▁पुढील	-10.7153
▁वयस्क	-10.7153
▁वेबसाइट	-10.7153
▁संघर्ष	-10.7153
▁পেয়েছিল	-10.7153
▁রেখে	-10.7153
▁সরবরাহ	-10.7153
▁স্থাপন	-10.7153
▁கண்டுபிடிப்ப	-10.7153
▁துறைமுக	-10.7153
▁ఆధారపడ	-10.7153
▁ఆస్ట్రేలియా	-10.7153
▁ಅಂತಿಮ	-10.7153
▁ಧ್ವನಿ	-10.7153
▁ಪರ್ವತ	-10.7153
▁ಮಾಹಿತಿ	-10.7153
▁ಸಾಮರ್ಥ್ಯ	-10.7153
▁കണക്കാക്ക	-10.7153
▁ചരിത്ര	-10.7153
▁പരമ്പരാഗത	-10.7153
▁പ്രക്രിയ	-10.7153
▁സംസ്കാര	-10.7153
▁സമുദ്ര	-10.7153
NSA	-10.7153
ground	-10.7153
द्वीपसमूह	-10.7153
प्रधान	-10.7153
అభ్యసన	-10.7153
ಶಾಸ್ತ್ರ	-10.7153
▁French	-10.7153
▁While	-10.7153
▁available	-10.7153
▁bird	-10.7153
▁built	-10.7153
▁certain	-10.7153
▁hospital	-10.7153
▁method	-10.7153
▁minute	-10.7153
▁mountain	-10.7153
▁official	-10.7153
▁organization	-10.7153
▁popular	-10.7153
▁route	-10.7153
▁students	-10.7153
▁surviv	-10.7153
▁together	-10.7153
▁अंतिम	-10.7153
▁अटलांटिक	-10.7153
▁अपघात	-10.7153
▁ऑस्ट्र	-10.7153
▁जिनमें	-10.7153
▁जैसा	-10.7153
▁तुर्की	-10.7153
▁पहिल्या	-10.7153
▁पाहिजे	-10.7153
▁पुष्टि	-10.7153
▁फ्रेंच	-10.7153
▁ब्रिटिश	-10.7153
▁राष्ट्रपति	-10.7153
▁वेगवेगळ	-10.7153
▁संक्रमित	-10.7153
▁सक्रिय	-10.7153
▁सल्ला	-10.7153
▁स्थापन	-10.7153
▁हिस्से	-10.7153
▁আক্রমণ	-10.7153
▁আক্রান্ত	-10.7153
▁আঘাত	-10.7153
▁উদ্ভিদ	-10.7153
▁কার্যকর	-10.7153
▁ছেড়ে	-10.7153
▁জনগোষ্ঠী	-10.7153
▁দেখে	-10.7153
▁নিজস্ব	-10.7153
▁নির্দেশ	-10.7153
▁নির্ধারণ	-10.7153
▁পাঠানো	-10.7153
▁প্রতিযোগিতা	-10.7153
▁ফ্রান্স	-10.7153
▁বৃহত্তম	-10.7153
▁বৈশিষ্ট্য	-10.7153
▁মামলা	-10.7153
▁যেহেতু	-10.7153
▁রাখতে	-10.7153
▁স্বতন্ত্র	-10.7153
▁அடங்கும்	-10.7153
▁அருகில்	-10.7153
▁உரிமை	-10.7153
▁ஐரோப்பிய	-10.7153
▁கண்ண	-10.7153
▁கிட்டத்தட்ட	-10.7153
▁குடியரச	-10.7153
▁குறிப்பிடத்தக்க	-10.7153
▁செயற்கைக்கோள	-10.7153
▁பாதுகாப்பான	-10.7153
▁மில்லியன்	-10.7153
▁முதன்மை	-10.7153
▁అడుగు	-10.7153
▁అమెరికా	-10.7153
▁అవకాశం	-10.7153
▁ఆఫ్రికా	-10.7153
▁ఆసుపత్రి	-10.7153
▁కంపెనీ	-10.7153
▁జపాన్	-10.7153
▁ట్రాఫిక్	-10.7153
▁తెలిసిన	-10.7153
▁పూర్వ	-10.7153
▁రాష్ట్ర	-10.7153
▁రెండవ	-10.7153
▁విస్తృతంగా	-10.7153
▁శాతం	-10.7153
▁సమీపంలో	-10.7153
▁స్థాయి	-10.7153
▁హెచ్చరి	-10.7153
▁ಅಮೇರಿಕಾ	-10.7153
▁ಆಸ್ಟ್ರೇಲಿಯಾ	-10.7153
▁ಕಳೆದುಕೊಂಡ	-10.7153
▁ಕುರಿತು	-10.7153
▁ನಡುವಿನ	-10.7153
▁ಮುಂದುವರ	-10.7153
▁ಶಾಂತಿ	-10.7153
▁ಸುರಕ್ಷಿತ	-10.7153
▁ಸೂರ್ಯ	-10.7153
▁ಹುಡುಕ	-10.7153
▁അതിർത്തി	-10.7153
▁അന്തരീക്ഷ	-10.7153
▁ആയിരിക്ക	-10.7153
▁ഇവിടെ	-10.7153
▁ഏതാണ്ട്	-10.7153
▁കാലഘട്ട	-10.7153
▁ഗെയിമ	-10.7153
▁താരതമ്യ	-10.7153
▁നടപടി	-10.7153
▁പ്രഖ്യാപി	-10.7153
▁മിക്കവാറും	-10.7153
▁വർഷം	-10.7153
▁ശതമാനം	-10.7153
▁സംരക്ഷ	-10.7153
▁living	-10.7153
▁means	-10.7153
▁अंतर्गत	-10.7153
▁असल्यामुळे	-10.7153
▁क्रू	-10.7153
▁फ्रान्स	-10.7153
▁विदेश	-10.7153
▁शैली	-10.7153
▁কর্তৃপক্ষ	-10.7153
▁নীতি	-10.7153
▁பொருள்	-10.7153
▁வித்தியாச	-10.7153
▁కేసుల	-10.7153
▁మాట్లాడ	-10.7153
▁ನಿಮಿಷ	-10.7153
▁ನೀರಿನ	-10.7153
▁ಪಕ್ಷಿ	-10.7153
▁ವೈವಿಧ್ಯ	-10.7153
▁സഞ്ചാരിക	-10.7153
▁സ്വീകരിക്ക	-10.7153
▁related	-10.7153
▁treat	-10.7153
▁துறை	-10.7153
▁ಚಿಕ್ಕ	-10.7153
▁ಪ್ರಥಮ	-10.7153
▁ಶಕ್ತಿ	-10.7153
▁നന്നായി	-10.7153
▁മൂന്ന്	-10.7153
▁During	-10.7153
▁जैसी	-10.7153
▁ज्ञान	-10.7153
▁நீண்ட	-10.7153
▁பழைய	-10.7153
▁రకాల	-10.7153
▁ಮೈಲಿ	-10.7153
ൊന്നും	-10.7153
▁नव्हते	-10.7153
▁অন্যতম	-10.7153
▁உள்ளூர்	-10.7153
▁ಕಲಿಕೆಯ	-10.7153
▁ಕಳೆದ	-10.7153
▁match	-10.7153
▁ஆரம்ப	-10.7153
▁நெரு	-10.7153
▁பதிவு	-10.7153
▁வீடு	-10.7153
▁clear	-10.7153
▁अहवाल	-10.7153
▁இரவு	-10.7153
▁எல்லை	-10.7153
▁వెనుక	-10.7153
▁ഗുഹ	-10.7153
▁पोलिस	-10.7153
▁চিত্র	-10.7153
▁అడవి	-10.7153
▁जल्द	-10.7153
▁मतलब	-10.7153
▁కోల్పోయ	-10.7153
▁ಮತ್ತೆ	-10.7153
▁nations	-10.7153
▁ফিরে	-10.7153
▁বাতিল	-10.7153
▁గుహ	-10.7153
▁परिवार	-10.7153
▁বাধ্য	-10.7153
▁हमारे	-10.7153
▁করুন	-10.7153
▁பறவை	-10.7153
▁చోట	-10.7153
▁बरेच	-10.7153
▁আহত	-10.7153
▁చర్య	-10.7153
▁வருட	-10.7153
▁सिंह	-10.7154
▁कहीं	-10.7154
▁కనిపిస్త	-10.7154
▁प्रयास	-10.7154
▁மட்டும்	-10.7154
পর্যায়	-10.7154
▁last	-10.7154
▁इराक	-10.7154
▁গেম	-10.7154
▁आकाश	-10.7154
▁ఎత్తు	-10.7154
▁सुंदरबन	-10.7154
▁ದಾಖಲ	-10.7154
বস্তু	-10.7154
करिता	-10.7154
▁হাঁট	-10.7154
▁मिनट	-10.7154
▁ರಚನೆ	-10.7154
▁घटक	-10.7154
▁miles	-10.7154
▁दशक	-10.7154
▁పదం	-10.7154
▁পাখি	-10.7154
▁সীমা	-10.7154
आम्ही	-10.7154
▁చైనా	-10.7154
▁ಮುಕ್ತ	-10.7154
▁ধর্ম	-10.7154
▁మేము	-10.7154
शिप	-10.7154
▁ലഭിച്ച	-10.7154
ங்களாக	-10.7154
▁prim	-10.7154
▁life	-10.7154
ಗಳಿಗಿಂತ	-10.7155
▁फरक	-10.7155
▁ನಾನು	-10.7155
ब्ब	-10.7155
▁ज्ञात	-10.7155
▁சேவை	-10.7155
▁ತಾಣ	-10.7155
▁শীত	-10.7155
▁hold	-10.7155
▁park	-10.7155
▁எடுக்க	-10.7156
▁दौर	-10.7156
र्‍या	-10.7156
▁ಸಾಧನ	-10.7156
▁കാരണമാ	-10.7157
▁তারপর	-10.7157
▁ಗಮನ	-10.7157
గురు	-10.7157
▁सादर	-10.7157
▁walk	-10.7158
▁सहमत	-10.7159
▁കാണിക്കുന്ന	-10.7159
▁చర్చ	-10.7159
▁அடுத்த	-10.7162
▁लाखो	-10.7163
ಗಾರರ	-10.7165
▁ನಿಯಮ	-10.7165
িষ্ট	-10.7167
▁తేల	-10.7167
▁മരണ	-10.7169
▁പക്ഷി	-10.7169
▁നിൽക്ക	-10.7173
▁వేగం	-10.7179
▁leave	-10.718
▁தயார	-10.7181
ചിലപ്പോൾ	-10.7183
▁free	-10.7184
parent	-10.7189
▁प्रजाति	-10.7195
সঙ্গ	-10.72
▁ತಯಾರಿಸ	-10.7203
ಬಹುದಾಗಿ	-10.7206
▁ತೀರ	-10.7207
ிருக்கிறத	-10.7237
कर्त	-10.724
ഫീസ	-10.7266
ియర్	-10.7268
▁ದೇವರ	-10.7284
विषयी	-10.7286
▁ఇంక	-10.7296
▁ഈസ്റ്റ	-10.7318
ಾಡುವ	-10.7323
സ്റ്റി	-10.7347
ിപ്പിക്കുന്ന	-10.7375
▁கலாச்சாரத்த	-10.7417
विण्या	-10.742
ுமாறு	-10.7484
వారికి	-10.7513
ఉ	-10.7659
সাথে	-10.766
দিকে	-10.7663
▁ఉపయోగించబడ	-10.7667
▁எண்	-10.7697
ున్నాయి	-10.7793
▁तपास	-10.7835
ുന്നതിൽ	-10.7838
െത്തി	-10.7905
▁ಯಾವ	-10.7908
సమూహం	-10.7908
▁गेल्या	-10.7925
▁पुनर	-10.7973
▁చేయబడ్డ	-10.7978
കൂടിയ	-10.7999
ి౦చ	-10.8303
▁விளைவ	-10.8314
ಿಸಿದ್ದಾರೆ	-10.8364
▁ठिकाण	-10.8375
வற்றில்	-10.8379
▁పెట్ట	-10.8393
▁सुंदर	-10.8403
▁അടിസ്ഥാന	-10.8403
वस्तु	-10.8403
▁సందర్భ	-10.8403
▁ರೂಪಾಂತರ	-10.8403
▁ಹೊಡೆದ	-10.8403
▁ശബ്ദ	-10.8403
क्रांती	-10.8403
धारणा	-10.8403
स्फोट	-10.8403
বর্তিত	-10.8403
കൂടുതല	-10.8403
▁Haiti	-10.8403
▁sometimes	-10.8403
▁special	-10.8403
▁अधिकाऱ्यां	-10.8403
▁आश्चर्य	-10.8403
▁निर्णय	-10.8403
▁पर्यटन	-10.8403
▁पेस्ट्री	-10.8403
▁प्रतिक्रिया	-10.8403
▁प्रदूषण	-10.8403
▁बुधवार	-10.8403
▁विस्तार	-10.8403
▁व्यंजन	-10.8403
▁व्यवसाय	-10.8403
▁श्रेणी	-10.8403
▁स्पर्धा	-10.8403
▁२००	-10.8403
▁জাহাজ	-10.8403
▁দৃষ্টি	-10.8403
▁বিবেচনা	-10.8403
▁இயற்கை	-10.8403
▁உண்ண	-10.8403
▁ஜனாதிபதி	-10.8403
▁தலைநகர	-10.8403
▁பொறுப்ப	-10.8403
▁மருத்துவ	-10.8403
▁மூலமாக	-10.8403
▁வானிலை	-10.8403
▁అవసరమైన	-10.8403
▁కార్యక్రమ	-10.8403
▁భారత	-10.8403
▁వినియోగ	-10.8403
▁వైవిధ్య	-10.8403
▁సమాచార	-10.8403
▁ಅಧಿಕೃತ	-10.8403
▁ಆಸಕ್ತಿ	-10.8403
▁ಒಪ್ಪಂದ	-10.8403
▁ಕರಾವಳಿ	-10.8403
▁ಗಣರಾಜ್ಯ	-10.8403
▁ಗುಂಪಿನ	-10.8403
▁ನಿರ್ವಹಿಸ	-10.8403
▁ಬದಲಾವಣೆ	-10.8403
▁ಸಾರ್ವಜನಿಕ	-10.8403
▁ಸ್ವೀಕರಿಸ	-10.8403
▁അങ്ങനെ	-10.8403
▁എളുപ്പമ	-10.8403
▁കാലാവസ്ഥ	-10.8403
▁പരീക്ഷ	-10.8403
▁ലളിത	-10.8403
▁വളർത്ത	-10.8403
▁സംബന്ധിച്ച	-10.8403
▁സ്വതന്ത്ര	-10.8403
Christian	-10.8403
Ghz	-10.8403
believe	-10.8403
original	-10.8403
शिवाय	-10.8403
বিভাগ	-10.8403
স্বাভাবিক	-10.8403
க்கூடிய	-10.8403
ிருக்கலாம்	-10.8403
ಣ್ಣು	-10.8403
ಬಹುದಾದ	-10.8403
ಬೇಕಾಗುತ್ತದೆ	-10.8403
യുണ്ടായി	-10.8403
യൂറോപ്യൻ	-10.8403
െക്കുറിച്ച്	-10.8403
▁11:35	-10.8403
▁1755	-10.8403
▁1884	-10.8403
▁1895	-10.8403
▁1920	-10.8403
▁1945	-10.8403
▁1964	-10.8403
▁3.50	-10.8403
▁400,000	-10.8403
▁800,000	-10.8403
▁8:30	-10.8403
▁After	-10.8403
▁Although	-10.8403
▁FBI	-10.8403
▁John	-10.8403
▁TMZ	-10.8403
▁accident	-10.8403
▁across	-10.8403
▁adapt	-10.8403
▁announced	-10.8403
▁biggest	-10.8403
▁capital	-10.8403
▁computer	-10.8403
▁dinosaur	-10.8403
▁individual	-10.8403
▁problem	-10.8403
▁public	-10.8403
▁radio	-10.8403
▁strong	-10.8403
▁suggest	-10.8403
▁traffic	-10.8403
▁weather	-10.8403
▁wildlife	-10.8403
▁आकर्षित	-10.8403
▁आरोग्य	-10.8403
▁ऐतिहासिक	-10.8403
▁औषध	-10.8403
▁कंप्यूटर	-10.8403
▁चांगल्या	-10.8403
▁ज़रूरी	-10.8403
▁टैक्स	-10.8403
▁तीव्र	-10.8403
▁तूफ़ान	-10.8403
▁तैयार	-10.8403
▁त्सुनामी	-10.8403
▁दस्तऐवज	-10.8403
▁दिलचस्प	-10.8403
▁प्रजाती	-10.8403
▁प्रशिक्षण	-10.8403
▁बाबतीत	-10.8403
▁भौगोलिक	-10.8403
▁मजबूर	-10.8403
▁मधुमेह	-10.8403
▁मनोरंजक	-10.8403
▁मामलों	-10.8403
▁रद्द	-10.8403
▁लोकसंख्या	-10.8403
▁शताब्दी	-10.8403
▁संग्रहालय	-10.8403
▁सकाळी	-10.8403
▁सर्वोत्तम	-10.8403
▁स्थापित	-10.8403
▁स्पॅनिश	-10.8403
▁অনুসরণ	-10.8403
▁অবশ্যই	-10.8403
▁অভিযোগ	-10.8403
▁আপনাকে	-10.8403
▁একমাত্র	-10.8403
▁খারাপ	-10.8403
▁চূড়ান্ত	-10.8403
▁জনসংখ্যা	-10.8403
▁তুষার	-10.8403
▁দৃশ্য	-10.8403
▁পছন্দ	-10.8403
▁পর্বত	-10.8403
▁পর্যটক	-10.8403
▁পশ্চিম	-10.8403
▁পারবেন	-10.8403
▁ব্যবসা	-10.8403
▁ভিন্ন	-10.8403
▁যোগাযোগ	-10.8403
▁রাজধানী	-10.8403
▁রাষ্ট্রপতি	-10.8403
▁শতাব্দী	-10.8403
▁সপ্তাহ	-10.8403
▁সম্ভাবনা	-10.8403
▁সুনামি	-10.8403
▁স্যাটেলাইট	-10.8403
▁அடிப்படையாகக்	-10.8403
▁ஐரோப்பா	-10.8403
▁சுனாமி	-10.8403
▁ஜெர்மனி	-10.8403
▁நிர்வாக	-10.8403
▁புரிந்து	-10.8403
▁புவியியல்	-10.8403
▁மாகாண	-10.8403
▁అనుభవ	-10.8403
▁అలవాటు	-10.8403
▁ఆరోగ్య	-10.8403
▁ఉత్పత్తి	-10.8403
▁ఎంపిక	-10.8403
▁ఎన్నికల	-10.8403
▁కంప్యూటర్	-10.8403
▁కొంతమంది	-10.8403
▁కొన్నిసార్లు	-10.8403
▁జర్మనీ	-10.8403
▁డైనోసార్	-10.8403
▁దక్షిణాఫ్రికా	-10.8403
▁నిమిషాల	-10.8403
▁పురాతన	-10.8403
▁పెంపుడు	-10.8403
▁ఫ్రాన్స్	-10.8403
▁యునైటెడ్	-10.8403
▁రాజధాని	-10.8403
▁విమర్శ	-10.8403
▁వ్యక్తులు	-10.8403
▁సరిహద్దు	-10.8403
▁సునామీ	-10.8403
▁స్టేట్స్	-10.8403
▁స్థావర	-10.8403
▁ಅವಕಾಶ	-10.8403
▁ಆರೋಗ್ಯ	-10.8403
▁ಆಸ್ಪತ್ರೆಯ	-10.8403
▁ಕಂಡುಹಿಡಿಯ	-10.8403
▁ಕಾನೂನು	-10.8403
▁ನಾಗರಿಕ	-10.8403
▁ಪುರಾತನ	-10.8403
▁ಫ್ರೆಂಚ್	-10.8403
▁ರಾಜಧಾನಿ	-10.8403
▁ವಿಜ್ಞಾನಿಗಳು	-10.8403
▁ವ್ಯಾಪಾರ	-10.8403
▁ಸಲಹೆ	-10.8403
▁ಸುನಾಮಿ	-10.8403
▁ಹಾಗೆಯೇ	-10.8403
▁അതുപോലെ	-10.8403
▁ആയിരക്കണക്കിന്	-10.8403
▁കേന്ദ്രീകര	-10.8403
▁ജനപ്രിയ	-10.8403
▁ട്രേലിയ	-10.8403
▁ദിനോസറ	-10.8403
▁പിന്തുണ	-10.8403
▁പിരമിഡ്	-10.8403
▁യുണൈറ്റഡ്	-10.8403
▁യൂറോപ്പ	-10.8403
▁സംഘടന	-10.8403
▁സുനാമി	-10.8403
condition	-10.8403
esign	-10.8403
বৃষ্টি	-10.8403
▁2015	-10.8403
▁photograph	-10.8403
▁टक्के	-10.8403
▁फ़्रांस	-10.8403
▁महिन्या	-10.8403
▁वेगळ्या	-10.8403
▁साम्राज्य	-10.8403
▁কম্পিউটার	-10.8403
▁ভূমিকম্প	-10.8403
▁சுற்றி	-10.8403
▁வீரர்கள	-10.8403
▁అనుమతి	-10.8403
▁క్రీడ	-10.8403
▁తగ్గించ	-10.8403
▁తరలించ	-10.8403
▁ఫోన్	-10.8403
▁వైద్య	-10.8403
▁సహాయపడ	-10.8403
▁ಅನುಸರಿಸ	-10.8403
▁ಧರ್ಮ	-10.8403
▁ನಿರ್ಮಿಸ	-10.8403
▁ವಿದೇಶ	-10.8403
▁പ്രദേശങ്ങളിൽ	-10.8403
▁റിപ്പബ്ലിക്	-10.8403
▁വന്യജീവി	-10.8403
▁company	-10.8403
▁phone	-10.8403
▁police	-10.8403
▁अधिकारियों	-10.8403
▁खरेदी	-10.8403
▁दौड़	-10.8403
▁అంశాల	-10.8403
▁ಉದ್ಯಾನವನ	-10.8403
▁ಕಾರ್ಯನಿರ್ವಹಿಸು	-10.8403
▁ಜಪಾನ್	-10.8403
▁ಹೀಗಾಗಿ	-10.8403
▁ഒരാൾ	-10.8403
▁dark	-10.8403
▁घेऊ	-10.8403
▁लवकर	-10.8403
▁वेगळे	-10.8403
▁வர்த்தக	-10.8403
▁రక్ష	-10.8403
▁ಪಟ್ಟಣ	-10.8403
▁ಮುಂದೆ	-10.8403
▁സ്ഥിര	-10.8403
▁When	-10.8403
▁यात्रियों	-10.8403
▁இடையில்	-10.8403
▁கண்க	-10.8403
▁നീന്ത	-10.8403
▁Many	-10.8403
▁until	-10.8403
▁இப்போது	-10.8403
▁தொடக்க	-10.8403
▁மாறுபட	-10.8403
▁నిద్ర	-10.8403
▁ജോൺ	-10.8403
▁power	-10.8403
▁week	-10.8403
▁रास्त	-10.8403
▁ಮುನ್ನ	-10.8403
▁ಹಳೆಯ	-10.8403
▁ജപ്പാന	-10.8403
శ్రమ	-10.8403
▁consist	-10.8403
▁Park	-10.8403
▁जाँच	-10.8403
▁ঘুম	-10.8403
▁ಬರ್ಗ್	-10.8403
▁ടീം	-10.8403
णार्‍या	-10.8403
▁ಉಳಿಸ	-10.8403
stance	-10.8403
▁ಪ್ರಕಟ	-10.8403
▁ಬೀಳ	-10.8403
▁मूत्र	-10.8403
▁লোকেরা	-10.8403
▁நியூ	-10.8403
▁வாகன	-10.8403
▁റൂട്ട	-10.8403
▁ऊपर	-10.8403
▁സ്വയം	-10.8403
▁ಗುಹೆ	-10.8403
▁असताना	-10.8403
▁तैर	-10.8403
▁মাইল	-10.8403
▁மாணவர்கள	-10.8403
▁word	-10.8403
▁మైళ్ళ	-10.8403
▁இசை	-10.8403
▁అయిన	-10.8403
▁reach	-10.8404
▁उपाय	-10.8404
▁किनारे	-10.8404
ൂപ്പർ	-10.8404
▁adult	-10.8404
▁ಪ್ರಕರಣಗಳ	-10.8404
▁సాధించ	-10.8404
▁পালক	-10.8404
▁বরফ	-10.8404
▁தவற	-10.8404
ുമെന്നും	-10.8404
▁stop	-10.8404
▁தாவரங்கள	-10.8404
▁election	-10.8404
ోటో	-10.8404
എഫ്	-10.8404
▁But	-10.8404
▁பணம்	-10.8404
▁होंगे	-10.8404
▁परिसर	-10.8404
▁व्याकरण	-10.8404
▁town	-10.8404
▁ಸುಂದರ	-10.8404
പൂച്ച	-10.8404
▁arriv	-10.8404
▁ಗಾಳಿ	-10.8404
body	-10.8404
ದಿದ್ದರೂ	-10.8404
▁ವಿಫಲವಾ	-10.8404
▁বাঁধ	-10.8405
▁issue	-10.8405
சக்தி	-10.8405
▁ലാൻഡ	-10.8405
▁भजन	-10.8405
▁முடிந்த	-10.8406
▁പ്രവേശി	-10.8406
▁செலவ	-10.8406
▁പഠിക്ക	-10.8406
▁ಧರಿಸ	-10.8406
▁அறிய	-10.8406
▁ಇಬ್ಬರ	-10.8407
▁அறிவிப்ப	-10.8407
▁स्क्	-10.8408
▁ಕ್ಯಾಂಪ	-10.8408
▁ಬೀರ	-10.8409
▁ಸಾಧಿಸ	-10.8412
ಕೆಳಗ	-10.8417
మీటర్ల	-10.8418
▁लैं	-10.8418
▁కలిగించ	-10.8418
▁range	-10.8419
ক্কা	-10.842
बोर्ड	-10.8422
ാർഡ്	-10.8422
▁संस्था	-10.8425
▁காடுகள	-10.8432
ిల్లా	-10.8432
▁നടക്ക	-10.8435
ಉದಾಹರಣೆಗೆ	-10.844
▁গুহা	-10.8442
পালন	-10.8456
విద్యార్థులు	-10.846
▁ಮಾನವರ	-10.8464
particularly	-10.847
▁ಸಂಸ್ಥೆ	-10.848
ചെയ്യാൻ	-10.8674
▁ಸುಲಭ	-10.8712
बंदी	-10.8905
್ಯಾನ್	-10.9038
ஆ	-10.9078
স্ট্রি	-10.9107
ike	-10.913
▁বয়স	-10.9145
▁ಪ್ರಯಾಣಿಸ	-10.9625
▁அறிவித்த	-10.9649
▁పురుషుల	-10.9653
▁particular	-10.9756
▁தேர்தல	-10.9774
▁ಆಧಾರ	-10.98
▁माहित	-10.9804
▁ചുറ്റു	-10.9814
▁പറഞ്ഞ	-10.9817
സ്തുക്കള	-10.9832
▁വിദ്യാർത്ഥിക	-10.9832
▁பார்வையிட	-10.9832
▁അന്വേഷ	-10.9832
▁ഉൾപ്പെടെ	-10.9832
▁സൂര്യ	-10.9832
প্রচেষ্টা	-10.9832
▁স্কিইং	-10.9832
▁২০০	-10.9832
▁கண்டுபிடிக்க	-10.9832
▁చేసుకున్న	-10.9832
▁ನಿರ್ಮಾಣ	-10.9832
▁ಪ್ಯಾರಿಸ್	-10.9832
▁ಬೆಕ್ಕು	-10.9832
▁ವ್ಯಾಖ್ಯಾನ	-10.9832
▁ലക്ഷ്യ	-10.9832
109)	-10.9832
10:08	-10.9832
1300)	-10.9832
निर्देश	-10.9832
योजित	-10.9832
প্রধানমন্ত্রী	-10.9832
சுதந்திர	-10.9832
போர்ட்	-10.9832
ಬಾರದು	-10.9832
ವಿಜ್ಞಾನ	-10.9832
ಸಾಮಗ್ರಿ	-10.9832
ಸಾಮಾಜಿಕ	-10.9832
ഭീഷണി	-10.9832
മീറ്റർ	-10.9832
സ്ഥാപിക്ക	-10.9832
▁(15.00	-10.9832
▁(1894-1895)	-10.9832
▁(1998)	-10.9832
▁(2006)	-10.9832
▁06:30	-10.9832
▁07:19	-10.9832
▁07:30	-10.9832
▁10,000	-10.9832
▁19,500	-10.9832
▁2021	-10.9832
▁3,850	-10.9832
▁330,000	-10.9832
▁4.2-3.9	-10.9832
▁40,000	-10.9832
▁820	-10.9832
▁9400	-10.9832
▁Filipino	-10.9832
▁France	-10.9832
▁QVC	-10.9832
▁Queen	-10.9832
▁Spanish	-10.9832
▁World	-10.9832
▁accept	-10.9832
▁almost	-10.9832
▁beaches	-10.9832
▁child	-10.9832
▁crash	-10.9832
▁danger	-10.9832
▁discover	-10.9832
▁easier	-10.9832
▁either	-10.9832
▁language	-10.9832
▁level	-10.9832
▁location	-10.9832
▁meaning	-10.9832
▁program	-10.9832
▁quite	-10.9832
▁scientific	-10.9832
▁served	-10.9832
▁species	-10.9832
▁wheel	-10.9832
▁whether	-10.9832
▁अस्तित्व	-10.9832
▁आधिकारिक	-10.9832
▁आसपास	-10.9832
▁उदाहरणार्थ	-10.9832
▁उनमें	-10.9832
▁उपसंस्कृत	-10.9832
▁कालावधी	-10.9832
▁किनाऱ्या	-10.9832
▁किलोमीटर	-10.9832
▁चिन्ह	-10.9832
▁चेतावनी	-10.9832
▁दस्तावेज	-10.9832
▁नामांकन	-10.9832
▁निर्धारित	-10.9832
▁पारंपारिक	-10.9832
▁पिछले	-10.9832
▁पेरिस	-10.9832
▁प्रक्रिये	-10.9832
▁प्रतिसाद	-10.9832
▁प्रेरणा	-10.9832
▁फिलिपिनो	-10.9832
▁बीमारी	-10.9832
▁भविष्य	-10.9832
▁महसूस	-10.9832
▁मिश्रण	-10.9832
▁मुकाबले	-10.9832
▁युनायटेड	-10.9832
▁रस्त्यावर	-10.9832
▁लोकसंख्ये	-10.9832
▁वर्चुअल	-10.9832
▁वाहतुकी	-10.9832
▁विपरीत	-10.9832
▁विभिन्न	-10.9832
▁विशाल	-10.9832
▁विश्वविद्यालय	-10.9832
▁व्याख्या	-10.9832
▁संसर्ग	-10.9832
▁सभ्यता	-10.9832
▁सहयोग	-10.9832
▁साहित्य	-10.9832
▁स्पेनिश	-10.9832
▁स्वास्थ्य	-10.9832
▁অত্যন্ত	-10.9832
▁অভিজ্ঞতা	-10.9832
▁উদ্ধার	-10.9832
▁উন্নত	-10.9832
▁উপত্যকা	-10.9832
▁কোথাও	-10.9832
▁খাদ্য	-10.9832
▁খ্রিস্টান	-10.9832
▁গিয়েছে	-10.9832
▁ছায়া	-10.9832
▁জুলাই	-10.9832
▁জ্ঞান	-10.9832
▁তীব্র	-10.9832
▁তুলতে	-10.9832
▁থাকবে	-10.9832
▁পদার্থ	-10.9832
▁পাহাড়	-10.9832
▁প্রজাতন্ত্র	-10.9832
▁প্রতিক্রিয়া	-10.9832
▁বিজ্ঞানীরা	-10.9832
▁বুঝতে	-10.9832
▁মন্দির	-10.9832
▁যথেষ্ট	-10.9832
▁যাচ্ছে	-10.9832
▁শক্তিশালী	-10.9832
▁শতাংশ	-10.9832
▁সিদ্ধান্ত	-10.9832
▁সুযোগ	-10.9832
▁স্থানান্তর	-10.9832
▁அவற்றை	-10.9832
▁ஆபத்தான	-10.9832
▁இத்தாலிய	-10.9832
▁உதாரணமாக	-10.9832
▁உற்பத்தி	-10.9832
▁ஏற்படும்	-10.9832
▁காயமடைந்த	-10.9832
▁சூப்பர்	-10.9832
▁ஜூலை	-10.9832
▁பரவலாக	-10.9832
▁பல்கலைக்கழக	-10.9832
▁பொருளாதார	-10.9832
▁முந்தைய	-10.9832
▁வெவ்வேறு	-10.9832
▁ஸ்பானிஷ்	-10.9832
▁అధ్యక్షుడు	-10.9832
▁ఆధారిత	-10.9832
▁ఆధునిక	-10.9832
▁ఆలోచన	-10.9832
▁ఉష్ణోగ్రత	-10.9832
▁ఏకైక	-10.9832
▁కొనుగోలు	-10.9832
▁క్రితం	-10.9832
▁క్రైస్తవ	-10.9832
▁డబ్బు	-10.9832
▁డాక్యుమెంట్	-10.9832
▁డ్రైవర్	-10.9832
▁తేడా	-10.9832
▁దృష్టి	-10.9832
▁ప్రాథమిక	-10.9832
▁ఫ్రెంచ్	-10.9832
▁మద్దతు	-10.9832
▁రోమన్	-10.9832
▁ల్యాండ్	-10.9832
▁విభిన్న	-10.9832
▁శాస్త్రవేత్తలు	-10.9832
▁స్పానిష్	-10.9832
▁ಅಧ್ಯಯನ	-10.9832
▁ಅಮೆರಿಕ	-10.9832
▁ಇತಿಹಾಸ	-10.9832
▁ಕೆಲವೊಮ್ಮೆ	-10.9832
▁ಚಂಡಮಾರುತ	-10.9832
▁ಚುನಾವಣೆ	-10.9832
▁ಚೆನ್ನಾಗಿ	-10.9832
▁ಪ್ರಾಚೀನ	-10.9832
▁ಫಲಿತಾಂಶ	-10.9832
▁ಫ್ರಾನ್ಸ್	-10.9832
▁ಬರವಣಿಗೆ	-10.9832
▁ಬೇಸಿಗೆ	-10.9832
▁ಮನುಷ್ಯ	-10.9832
▁ವಿನ್ಯಾಸ	-10.9832
▁ವಿಶಿಷ್ಟ	-10.9832
▁ವ್ಯವಹಾರ	-10.9832
▁ಸಂಗೀತ	-10.9832
▁ಸಾವಿರಾರು	-10.9832
▁ಸೂಪರ್	-10.9832
▁അഭിപ്രായ	-10.9832
▁അവകാശ	-10.9832
▁ആധുനിക	-10.9832
▁ആശ്രയ	-10.9832
▁എളുപ്പത്തിൽ	-10.9832
▁ഒരുപാട്	-10.9832
▁കണ്ടുപിടി	-10.9832
▁കിലോമീറ്റർ	-10.9832
▁ജനസംഖ്യ	-10.9832
▁ജൂലൈ	-10.9832
▁ജർമ്മനി	-10.9832
▁തീരുമാന	-10.9832
▁നമുക്ക്	-10.9832
▁നിറഞ്ഞ	-10.9832
▁പുരുഷന്മാര	-10.9832
▁പർവ്വത	-10.9832
▁മുന്നറിയിപ്പ്	-10.9832
▁രാജ്ഞി	-10.9832
▁വീണ്ടും	-10.9832
▁സംവിധാന	-10.9832
▁സാധ്യത	-10.9832
ऑपरेशन	-10.9832
वांशिक	-10.9832
ಶ್ರೇಣಿ	-10.9832
ിൻ്റെ	-10.9832
▁1624	-10.9832
▁Minister	-10.9832
▁president	-10.9832
▁season	-10.9832
▁simple	-10.9832
▁sitting	-10.9832
▁trans	-10.9832
▁variety	-10.9832
▁ईसाई	-10.9832
▁उत्कृष्ट	-10.9832
▁उपस्थित	-10.9832
▁चिंता	-10.9832
▁जुलाई	-10.9832
▁दिशा	-10.9832
▁पुस्तक	-10.9832
▁प्रजासत्ताक	-10.9832
▁प्रत्यक्ष	-10.9832
▁संक्रमण	-10.9832
▁জড়িত	-10.9832
▁পদক্ষেপ	-10.9832
▁পরীক্ষা	-10.9832
▁মিলিয়ন	-10.9832
▁সংগীত	-10.9832
▁அலுவலக	-10.9832
▁அவசர	-10.9832
▁உட்பட	-10.9832
▁செயல்முறை	-10.9832
▁ஜான்	-10.9832
▁தெற்கு	-10.9832
▁மாதிரிய	-10.9832
▁முதலில்	-10.9832
▁வெளிப்புற	-10.9832
▁జరిగింద	-10.9832
▁నియంత్రణ	-10.9832
▁పరిశీల	-10.9832
▁పేర్కొన్నా	-10.9832
▁ఫోర్	-10.9832
▁లాంటి	-10.9832
▁విధానం	-10.9832
▁సామర్థ్య	-10.9832
▁స్థితి	-10.9832
▁ಅತ್ಯುತ್ತಮ	-10.9832
▁ಅಭಿಪ್ರಾಯ	-10.9832
▁ಚಾಲಕ	-10.9832
▁ಭೂಕಂಪ	-10.9832
▁ಶೇಕಡ	-10.9832
▁ಸಂಪ್ರದಾಯ	-10.9832
▁എങ്ങനെ	-10.9832
▁നക്ഷത്ര	-10.9832
▁പദ്ധതി	-10.9832
▁ബുദ്ധിമുട്ട	-10.9832
▁വ്യത്യാസ	-10.9832
▁സംസ്ഥാന	-10.9832
▁സമൂഹ	-10.9832
▁സിംഹ	-10.9832
▁സേവന	-10.9832
Z	-10.9832
নৌকা	-10.9832
களிடம்	-10.9832
▁10:00	-10.9832
▁basic	-10.9832
▁hunt	-10.9832
▁money	-10.9832
▁swim	-10.9832
▁छोटा	-10.9832
▁जुलै	-10.9832
▁प्रौढ	-10.9832
▁भूमध्य	-10.9832
▁मछली	-10.9832
▁संभावना	-10.9832
▁सुझाव	-10.9832
▁এসেছিল	-10.9832
▁இடையே	-10.9832
▁கைப்பற்ற	-10.9832
▁பணிபுரி	-10.9832
▁வெள்ள	-10.9832
▁గృహ	-10.9832
▁జట్టు	-10.9832
▁తగిన	-10.9832
▁పరుగుల	-10.9832
▁భయపడ	-10.9832
▁మెదడు	-10.9832
▁స్థల	-10.9832
▁స్థాపించ	-10.9832
▁ಲಕ್ಷ	-10.9832
▁ವಿಹಾರ	-10.9832
▁കേൾക്ക	-10.9832
▁ദൂര	-10.9832
▁പൊതുവെ	-10.9832
▁आर्थिक	-10.9832
▁कायद्या	-10.9832
▁கிழக்கி	-10.9832
▁கேள்வி	-10.9832
▁வாழ்க்கை	-10.9832
▁బస్సు	-10.9832
▁health	-10.9832
▁presence	-10.9832
▁reason	-10.9832
▁चाहते	-10.9832
▁चुकी	-10.9832
▁सुनामी	-10.9832
▁সিংহ	-10.9832
▁பொருந்த	-10.9832
▁గేమ్	-10.9832
▁Paris	-10.9832
▁Island	-10.9832
▁iron	-10.9832
▁person	-10.9832
▁करण्याचे	-10.9832
▁संरचना	-10.9832
▁నివాస	-10.9832
▁ಹಡಗು	-10.9832
প্রদেশ	-10.9832
▁Since	-10.9832
▁সক্ষম	-10.9832
▁బట్టి	-10.9832
ಗಳಾಗಿವೆ	-10.9832
▁operat	-10.9832
▁பயணிகள்	-10.9832
▁দরকার	-10.9832
▁தோற்ற	-10.9832
▁மொத்த	-10.9832
▁നഷ്ട	-10.9832
▁coast	-10.9832
▁বন্দর	-10.9832
▁ఉండటం	-10.9832
ണമെന്ന്	-10.9832
▁বিচার	-10.9832
▁சேர்ந்த	-10.9832
▁standard	-10.9832
▁धोरण	-10.9832
▁नेशनल	-10.9832
▁పార్కు	-10.9832
▁shop	-10.9832
▁দৌড়	-10.9832
▁கலவை	-10.9832
▁(11	-10.9832
▁ताकि	-10.9832
▁(50	-10.9832
▁విద్య	-10.9832
▁ಆದರೂ	-10.9832
▁महीने	-10.9832
meters	-10.9832
▁கடினம	-10.9832
▁ఇంటి	-10.9832
▁रचना	-10.9832
▁होईल	-10.9832
▁നിർമ്മിച്ച	-10.9832
▁pull	-10.9832
▁कनाडा	-10.9832
▁দিতে	-10.9832
▁अन्न	-10.9832
▁സൈനിക	-10.9832
ುತ್ತಿತ್ತು	-10.9832
▁path	-10.9832
ർഗ്ഗ	-10.9832
board	-10.9832
▁वाईट	-10.9832
വിധം	-10.9833
▁கருவி	-10.9833
▁పట్టణం	-10.9833
▁தெரிந்த	-10.9833
▁स्वतःच	-10.9833
▁पाठवि	-10.9833
▁வடிவமைப்ப	-10.9833
▁విమానం	-10.9833
▁భావిస్త	-10.9833
▁शरीर	-10.9833
ബെർ	-10.9833
▁రాజు	-10.9834
▁संगीत	-10.9834
ിൽനിന്ന്	-10.9834
െല്ലാം	-10.9835
▁மனிதர்களை	-10.9835
▁கொடுக்க	-10.9835
▁போட்டியிட	-10.9835
▁বাতাস	-10.9835
▁விரைவ	-10.9836
सारखा	-10.9836
ഷ്യൻ	-10.9836
▁ശരിയാ	-10.9836
▁ತಿಂಗಳ	-10.9837
▁নিয়ম	-10.9837
▁वाक्य	-10.9839
▁चौक	-10.9839
▁తెర	-10.9839
ಪಾವತಿ	-10.984
▁விளக்க	-10.984
ేందుకు	-10.9842
▁ತಲೆ	-10.9843
▁ಇಳಿ	-10.9844
ಾಗಿದ್ದವು	-10.9852
▁கூறுகள	-10.9854
▁share	-10.9858
அழைக்கப்படுகிறது	-10.9864
ಆಧಾರಿತ	-10.9864
▁ஆற்றல	-10.9867
அடிப்படையில்	-10.9911
বয়সী	-10.9914
ভিত্তিক	-10.9931
unci	-10.9932
▁സൂചിപ്പിക്കുന്ന	-10.9994
▁दर्ज	-11.005
ग्रह	-11.0053
കാട്ടു	-11.0114
▁ಪ್ರಯತ್ನ	-11.0152
इंडि	-11.0163
▁సమూహ	-11.043
▁ಪ್ರಾರಂಭ	-11.0609
দ্বীপ	-11.0746
विशेष	-11.0751
▁అందుక	-11.1039
ప్రత్యేకమైన	-11.1195
നിർമ്മാണ	-11.1427
▁animal	-11.1444
നുസരിച്ച്	-11.1445
▁ಉದಾಹರಣೆ	-11.1449
▁രേഖ	-11.1462
appa	-11.1479
▁तुमच	-11.149
▁ಮಹಿಳೆ	-11.1495
പ്പെടുത്തുന്ന	-11.1496
়	-11.1497
রাষ্ট্র	-11.1498
▁ആശുപത്രി	-11.1499
▁உபயோக	-11.1499
▁ಕಡಲತೀರ	-11.1499
▁ക്ഷേത്ര	-11.1499
▁ദ്രവ്യ	-11.1499
▁വിധേയ	-11.1499
டபிள்யூ	-11.1499
ദൃശ്യ	-11.1499
▁(2009	-11.1499
▁investigat	-11.1499
▁पॅरिस	-11.1499
▁পর্যবেক্ষণ	-11.1499
▁স্বাক্ষর	-11.1499
▁வேட்டையாட	-11.1499
▁ஹாங்காங்	-11.1499
▁ఆశ్చర్య	-11.1499
▁ఉద్యోగ	-11.1499
▁ప్రయోగ	-11.1499
▁ಅಸ್ತಿತ್ವ	-11.1499
▁ಕಂಡುಕೊಳ್ಳ	-11.1499
▁ಗಡಿಯಾರ	-11.1499
▁ದೇವಾಲಯ	-11.1499
▁ಪರಮಾಣು	-11.1499
▁ಪುಸ್ತಕ	-11.1499
▁ರೇಡಿಯೊ	-11.1499
▁ಸಮುದಾಯ	-11.1499
▁ഏജൻസി	-11.1499
▁ഡബ്ല്യു	-11.1499
▁തുറമുഖ	-11.1499
▁പ്രഖ്യാപന	-11.1499
▁വ്യതിയാന	-11.1499
▁സംഗീത	-11.1499
130,000	-11.1499
archipelago	-11.1499
building	-11.1499
function	-11.1499
ography	-11.1499
ology	-11.1499
struction	-11.1499
टिप्पणी	-11.1499
परिभाषित	-11.1499
विरुद्ध	-11.1499
वैयक्तिक	-11.1499
०००	-11.1499
ওয়েবসাইট	-11.1499
সামরিক	-11.1499
ஒப்பீட்டளவில்	-11.1499
పోవడం	-11.1499
వ్యాప్తంగా	-11.1499
ದ್ವೀಪಸಮೂಹ	-11.1499
ಬುಷ್	-11.1499
ವಿದ್ಯಾರ್ಥಿಗಳು	-11.1499
ഉദാഹരണത്തിന്	-11.1499
രാഷ്ട്രീയ	-11.1499
ോടൊപ്പ	-11.1499
▁(1644-1912)	-11.1499
▁(3,980	-11.1499
▁1,400	-11.1499
▁17,500	-11.1499
▁1:09.02	-11.1499
▁2:11.60	-11.1499
▁35-40	-11.1499
▁4:41.30	-11.1499
▁6,000	-11.1499
▁According	-11.1499
▁Also	-11.1499
▁Apple	-11.1499
▁August	-11.1499
▁Congress	-11.1499
▁Moldova	-11.1499
▁Olympic	-11.1499
▁President	-11.1499
▁Sweden	-11.1499
▁Taiwan	-11.1499
▁agricultur	-11.1499
▁although	-11.1499
▁audience	-11.1499
▁authorities	-11.1499
▁beyond	-11.1499
▁brought	-11.1499
▁business	-11.1499
▁cannot	-11.1499
▁church	-11.1499
▁current	-11.1499
▁distinct	-11.1499
▁effective	-11.1499
▁effort	-11.1499
▁extreme	-11.1499
▁feathers	-11.1499
▁focus	-11.1499
▁injured	-11.1499
▁involve	-11.1499
▁leaving	-11.1499
▁planning	-11.1499
▁potential	-11.1499
▁record	-11.1499
▁republic	-11.1499
▁second	-11.1499
▁service	-11.1499
▁situation	-11.1499
▁specific	-11.1499
▁technology	-11.1499
▁temperature	-11.1499
▁threat	-11.1499
▁tourists	-11.1499
▁tsunami	-11.1499
▁warning	-11.1499
▁अखेरीस	-11.1499
▁अगस्त	-11.1499
▁अफ्रीका	-11.1499
▁अवलंबून	-11.1499
▁आंतरराष्ट्रीय	-11.1499
▁आकाशगंगा	-11.1499
▁आठवड्या	-11.1499
▁इलाकों	-11.1499
▁उड़ान	-11.1499
▁ऑलिम्पिक	-11.1499
▁कठीण	-11.1499
▁करण्याकरिता	-11.1499
▁कांग्रेस	-11.1499
▁कुंडलिनी	-11.1499
▁कुटुंबा	-11.1499
▁कोणताही	-11.1499
▁कोशिश	-11.1499
▁क्रांति	-11.1499
▁क्रिस्टल	-11.1499
▁खत्म	-11.1499
▁चांगल्याप्रकारे	-11.1499
▁चूँकि	-11.1499
▁छप्पन	-11.1499
▁छायाचित्र	-11.1499
▁जनसंख्या	-11.1499
▁जमिनीवर	-11.1499
▁ज़रिए	-11.1499
▁जिन्हें	-11.1499
▁जुन्या	-11.1499
▁जुळवून	-11.1499
▁ज्वालामुखी	-11.1499
▁ताइवान	-11.1499
▁तैवान	-11.1499
▁दाखव	-11.1499
▁दिशेने	-11.1499
▁दूसरों	-11.1499
▁निर्धारण	-11.1499
▁नैसर्गिक	-11.1499
▁पाळीव	-11.1499
▁पुनर्निर्माण	-11.1499
▁पौधे	-11.1499
▁प्रारूप	-11.1499
▁प्रेरित	-11.1499
▁बंदरगाह	-11.1499
▁बॉक्स	-11.1499
▁ब्रिटेन	-11.1499
▁मुकदमा	-11.1499
▁मोबाइल	-11.1499
▁रग्बी	-11.1499
▁रुग्णालया	-11.1499
▁रेडिओ	-11.1499
▁विक्री	-11.1499
▁शैक्षणिक	-11.1499
▁शोधकर्ताओं	-11.1499
▁शौचालय	-11.1499
▁श्रृंखला	-11.1499
▁सहभागी	-11.1499
▁सैद्धांतिक	-11.1499
▁सोमवार	-11.1499
▁हस्ताक्षर	-11.1499
▁हिसाब	-11.1499
▁हिस्सों	-11.1499
▁আধুনিক	-11.1499
▁ইঙ্গিত	-11.1499
▁ইতিহাস	-11.1499
▁ইন্টারনেট	-11.1499
▁উন্নয়ন	-11.1499
▁কাছাকাছি	-11.1499
▁ক্ষতিগ্রস্থ	-11.1499
▁জুড়ে	-11.1499
▁তাপমাত্রা	-11.1499
▁দায়িত্ব	-11.1499
▁দুর্দান্ত	-11.1499
▁ধাতু	-11.1499
▁পরিবর্তে	-11.1499
▁পরিষ্কার	-11.1499
▁পার্থক্য	-11.1499
▁পৃথক	-11.1499
▁পোশাক	-11.1499
▁প্রচুর	-11.1499
▁প্রতিযোগী	-11.1499
▁প্রাথমিক	-11.1499
▁ফিলিপিন	-11.1499
▁বাণিজ্য	-11.1499
▁বাহিনী	-11.1499
▁বৈজ্ঞানিক	-11.1499
▁ভিডিও	-11.1499
▁মহাসাগর	-11.1499
▁যথাযথ	-11.1499
▁রেডিও	-11.1499
▁শ্রেণি	-11.1499
▁সংগ্রহ	-11.1499
▁সমালোচনা	-11.1499
▁সম্মুখীন	-11.1499
▁সর্বোচ্চ	-11.1499
▁সহায়তা	-11.1499
▁সামাজিক	-11.1499
▁সূর্য	-11.1499
▁স্বাস্থ্য	-11.1499
▁அனுபவத்த	-11.1499
▁அருகிலுள்ள	-11.1499
▁இயலும்	-11.1499
▁இராணுவ	-11.1499
▁உறுப்பினர்கள	-11.1499
▁எச்சரிக்கை	-11.1499
▁ஒலிம்பிக்	-11.1499
▁காவல்துறை	-11.1499
▁சதவீத	-11.1499
▁சமயங்களில்	-11.1499
▁சர்வதேச	-11.1499
▁சிகிச்சை	-11.1499
▁சிறுநீர	-11.1499
▁சுற்றியுள்ள	-11.1499
▁சுற்றுச்சூழல	-11.1499
▁செயல்பாடு	-11.1499
▁டைனோசர	-11.1499
▁நிமிடங்கள	-11.1499
▁பனிக்கட்டி	-11.1499
▁பழமையான	-11.1499
▁மாநில	-11.1499
▁மேற்பட்ட	-11.1499
▁மோசமான	-11.1499
▁வடக்கில்	-11.1499
▁வடக்கே	-11.1499
▁விஞ்ஞானிகள்	-11.1499
▁வெறும்	-11.1499
▁வேறுபாடுகள	-11.1499
▁అంతరాయం	-11.1499
▁అంతర్జాతీయ	-11.1499
▁అందువల్ల	-11.1499
▁అద్భుతమైన	-11.1499
▁అరుదుగా	-11.1499
▁ఆగస్టు	-11.1499
▁ఈవెంట్	-11.1499
▁ఉన్నప్పటికీ	-11.1499
▁ఎలాంటి	-11.1499
▁కనీసం	-11.1499
▁కాంగ్రెస్	-11.1499
▁కృష్ణ	-11.1499
▁క్యాంప	-11.1499
▁గుండా	-11.1499
▁గుర్తింపు	-11.1499
▁గొప్ప	-11.1499
▁చరిత్ర	-11.1499
▁జర్మన్	-11.1499
▁జూలై	-11.1499
▁తుఫాను	-11.1499
▁తైవాన్	-11.1499
▁నివేదిక	-11.1499
▁నౌకాశ్రయ	-11.1499
▁పరిశోధకులు	-11.1499
▁పర్యటన	-11.1499
▁పర్యావరణ	-11.1499
▁పశ్చిమ	-11.1499
▁పిలుస్తారు	-11.1499
▁ప్రాచీన	-11.1499
▁బృందం	-11.1499
▁భద్రతా	-11.1499
▁భావించ	-11.1499
▁భూభాగం	-11.1499
▁భౌగోళిక	-11.1499
▁యూరోపియన్	-11.1499
▁రిపోర్ట్	-11.1499
▁రైడర్	-11.1499
▁లక్షణాల	-11.1499
▁లక్ష్య	-11.1499
▁వంతెన	-11.1499
▁వన్యప్రాణుల	-11.1499
▁వాస్తవ	-11.1499
▁వ్యతిరేక	-11.1499
▁సమావేశ	-11.1499
▁సూర్యు	-11.1499
▁స్త్రీ	-11.1499
▁స్పష్టంగా	-11.1499
▁స్వీడన్	-11.1499
▁ಅವಧಿಯಲ್ಲಿ	-11.1499
▁ಆಧುನಿಕ	-11.1499
▁ಎರಡನೇ	-11.1499
▁ಎರಡೂ	-11.1499
▁ಕಂಪ್ಯೂಟರ್	-11.1499
▁ಕಾಯಿಲೆ	-11.1499
▁ತಕ್ಷಣ	-11.1499
▁ತೆಗೆದುಕೊಂಡ	-11.1499
▁ಪೋಷಕ	-11.1499
▁ಪ್ರತಿಯೊಂದು	-11.1499
▁ಪ್ರದರ್ಶನ	-11.1499
▁ಬಗೆಗಿನ	-11.1499
▁ಮತದಾನ	-11.1499
▁ಲಕ್ಷಾಂತರ	-11.1499
▁ಲಭ್ಯವಿ	-11.1499
▁ವನ್ಯಜೀವಿ	-11.1499
▁ವಯಸ್ಕ	-11.1499
▁ವಿರುದ್ಧ	-11.1499
▁ವೈದ್ಯಕೀಯ	-11.1499
▁ಸಂಗ್ರಹಿಸ	-11.1499
▁ಸಂಪೂರ್ಣವಾಗಿ	-11.1499
▁ಸಂಭವಿಸ	-11.1499
▁ಸಂಶೋಧಕರು	-11.1499
▁ಸ್ಕೀಯಿಂಗ್	-11.1499
▁ಸ್ಪ್ಯಾನಿಷ್	-11.1499
▁ಸ್ವೀಡನ್	-11.1499
▁അന്താരാഷ്	-11.1499
▁ഇന്റർനെറ്റ	-11.1499
▁ഉദ്യോഗസ്ഥ	-11.1499
▁ഒഴിവാക്ക	-11.1499
▁കമ്പ്യൂട്ടർ	-11.1499
▁ഗവേഷകർ	-11.1499
▁താപനില	-11.1499
▁തിരികെ	-11.1499
▁തിരിച്ചറിയ	-11.1499
▁തീർച്ചയായും	-11.1499
▁നമ്മുടെ	-11.1499
▁നികുതി	-11.1499
▁പൂർണ്ണമായും	-11.1499
▁പൊരുത്തപ്പെട	-11.1499
▁പോയിന്റ	-11.1499
▁പ്രകടന	-11.1499
▁പ്രസിഡന്റ്	-11.1499
▁പർവത	-11.1499
▁ഫോർമാറ്റ	-11.1499
▁മാത്രം	-11.1499
▁മിനിറ്റ്	-11.1499
▁മുഴുവൻ	-11.1499
▁രണ്ടാമത്തെ	-11.1499
▁റിപ്പോർട്ടുകൾ	-11.1499
▁വാഗ്ദാനം	-11.1499
▁വീഡിയോ	-11.1499
▁വർഷങ്ങൾക്ക്	-11.1499
▁സാങ്കേതികവിദ്യ	-11.1499
▁സാധനങ്ങൾ	-11.1499
▁സാമ്പത്തിക	-11.1499
▁സുരക്ഷാ	-11.1499
▁സ്റ്റേറ്റ്സ്	-11.1499
2,500	-11.1499
ब्ल्यू	-11.1499
সুবিধা	-11.1499
రోడ్డు	-11.1499
ಾದ್ಯಂತ	-11.1499
▁1850	-11.1499
▁Prime	-11.1499
▁border	-11.1499
▁clock	-11.1499
▁education	-11.1499
▁having	-11.1499
▁rather	-11.1499
▁seven	-11.1499
▁severe	-11.1499
▁throughout	-11.1499
▁video	-11.1499
▁आलोचना	-11.1499
▁एकमेकां	-11.1499
▁कार्यालय	-11.1499
▁चक्र	-11.1499
▁बर्लिन	-11.1499
▁बाजार	-11.1499
▁बाधित	-11.1499
▁सकारात्मक	-11.1499
▁सत्ता	-11.1499
▁উৎপাদন	-11.1499
▁এসেছে	-11.1499
▁কখনো	-11.1499
▁কানাড	-11.1499
▁পুনর্নির্মাণ	-11.1499
▁যুগ	-11.1499
▁সুইডেন	-11.1499
▁হংকং	-11.1499
▁ஆகியோர்	-11.1499
▁உண்மை	-11.1499
▁கடவுள	-11.1499
▁கடிகார	-11.1499
▁குதிரை	-11.1499
▁கோட்பாடுகள	-11.1499
▁போதிலும்	-11.1499
▁விவசாய	-11.1499
▁ఒలింపిక్	-11.1499
▁కనుగొన్న	-11.1499
▁చూడటానికి	-11.1499
▁ప్రముఖ	-11.1499
▁బలవంత	-11.1499
▁విశ్వవిద్యాలయ	-11.1499
▁వెంటనే	-11.1499
▁శైలి	-11.1499
▁సంరక్ష	-11.1499
▁ಪೆನ್ಸಿಲ್	-11.1499
▁ಬೆಂಬಲ	-11.1499
▁ಮೂತ್ರ	-11.1499
▁ರೋಮನ್	-11.1499
▁ವಾಪಸ್	-11.1499
▁ವಿವಿಧ	-11.1499
▁ವೃತ್ತಿ	-11.1499
▁ಸಿಂಹ	-11.1499
▁അതിജീവ	-11.1499
▁ഗ്രൂപ്പ	-11.1499
▁ട്രാവൽ	-11.1499
▁തയ്യാറാക്ക	-11.1499
▁നമ്മൾ	-11.1499
▁പരിപാടി	-11.1499
▁ബുദ്ധ	-11.1499
▁മറ്റൊരു	-11.1499
▁വിദ്യാഭ്യാസ	-11.1499
▁വിമർശ	-11.1499
▁സ്വാധീന	-11.1499
ण्यापूर्वी	-11.1499
వ్యాఖ్య	-11.1499
തിനേക്കാൾ	-11.1499
▁Goma	-11.1499
▁cities	-11.1499
▁national	-11.1499
▁size	-11.1499
▁चांगले	-11.1499
▁चेहरा	-11.1499
▁दाखल	-11.1499
▁समर्थन	-11.1499
▁চালানো	-11.1499
▁தற்போது	-11.1499
▁భారీ	-11.1499
▁యుగాల	-11.1499
▁సొంత	-11.1499
▁ಗೇಮ್	-11.1499
▁ನಾಯಕ	-11.1499
▁ಮಟ್ಟಿಗೆ	-11.1499
▁നിന്നോ	-11.1499
▁പ്രതീക്ഷിക്ക	-11.1499
▁धातु	-11.1499
▁পক্ষে	-11.1499
▁எதுவும்	-11.1499
▁கேட்க	-11.1499
▁வீட்டு	-11.1499
▁എടുത്ത	-11.1499
▁പാരീസ	-11.1499
▁സ്വന്തം	-11.1499
▁River	-11.1499
▁चंद्र	-11.1499
▁धातू	-11.1499
▁আকাশ	-11.1499
▁পিছনে	-11.1499
▁সমাধান	-11.1499
▁ಸಂಗತಿ	-11.1499
▁ഭരണ	-11.1499
ెంబర్	-11.1499
▁Kong	-11.1499
▁सापडले	-11.1499
▁বন্যজীবন	-11.1499
▁വിഭവങ്ങള	-11.1499
शारीरिक	-11.1499
▁visa	-11.1499
▁வசதிகள	-11.1499
▁प्रश्न	-11.1499
▁खींच	-11.1499
▁തുറന്ന	-11.1499
ಗೋಚರ	-11.1499
▁అడవుల	-11.1499
▁temple	-11.1499
▁வாய்ப்ப	-11.1499
front	-11.1499
Great	-11.1499
▁তাইওয়ান	-11.1499
▁think	-11.1499
▁विजेत	-11.1499
▁கையாள	-11.1499
▁ঘুর	-11.1499
▁లైన్	-11.1499
देखभाल	-11.1499
▁ಎಳೆಯ	-11.1499
▁perform	-11.1499
▁சிறித	-11.15
▁దళాల	-11.15
▁சிங்கங்கள	-11.15
दलदल	-11.15
ಬಟ್ಟೆಯ	-11.15
▁ರಾಣಿ	-11.15
▁ప్రయాణికుల	-11.15
▁2004).	-11.15
▁ഫ്രാൻസ	-11.15
▁ವಿವರಿಸ	-11.1501
്രേറ്റ്	-11.1501
ಿಸಿಕೊಳ್ಳಲ	-11.1501
എന്നറിയപ്പെടുന്ന	-11.1501
▁civi	-11.1501
▁విదేశా	-11.1502
▁வகுப்ப	-11.1502
▁സിവി	-11.1503
▁வளங்கள	-11.1504
▁direct	-11.1504
▁परिवर्त	-11.1508
প্রাপ্ত	-11.1511
పెట్టిన	-11.1514
▁ಎಂಬುದಾಗಿ	-11.1515
▁ಚಕ್ರಗಳ	-11.1518
▁गतिविधि	-11.1518
▁నిర్మాణ	-11.152
▁ರಚಿಸ	-11.1525
நிகழ்வுகள	-11.154
ഭാഗത്ത്	-11.1543
അധികാര	-11.1565
▁தென்னாப்பிரிக்க	-11.1594
▁ಪ್ರವೇಶಿಸ	-11.1611
ప్రత్యేకంగా	-11.1653
▁ಬದಲಾಗುತ್ತ	-11.1662
বিশ্ববিদ্যালয়ের	-11.1662
▁இருக்கிறத	-11.1737
ഭാഗം	-11.1798
▁ಭಾವಿಸ	-11.1845
देखील	-11.2751
▁স্বাধীন	-11.2775
ച്ചിട്ടുണ്ട	-11.283
സൂചിപ്പിക്കുന്നു	-11.3269
ಿಸಬಹುದಾಗಿದೆ	-11.3405
ങ	-11.3482
▁స్థాన	-11.3494
▁గమనించ	-11.3498
▁ತಪ್ಪಿಸ	-11.3498
empl	-11.3499
▁പ്രകൃതി	-11.3499
न्यूक्लि	-11.3499
ദ്ധ്യ	-11.3499
▁గుర్తు	-11.3499
▁ಮೌಲ್ಯ	-11.3499
▁ആരോഗ്യ	-11.3499
▁സ്നേഹ	-11.3499
ক্রীড়া	-11.3499
শিক্ষার্থী	-11.3499
ജർമ്മൻ	-11.3499
പുലർത്തു	-11.3499
വ്യവസ്ഥ	-11.3499
▁virtual	-11.3499
▁खेळाडूं	-11.3499
▁जीवाश्म	-11.3499
▁উচ্চারণ	-11.3499
▁জানিয়েছিল	-11.3499
▁শুল্ক	-11.3499
▁அறிவுறுத்த	-11.3499
▁சுட்டிக்காட்ட	-11.3499
▁பெரும்பான்மைய	-11.3499
▁అమెరికన్	-11.3499
▁చేస్తున్న	-11.3499
▁మహాసముద్రం	-11.3499
▁శతాబ్దాల	-11.3499
▁సామాజిక	-11.3499
▁ಅಂದಾಜಿಸ	-11.3499
▁ಉಪಗ್ರಹ	-11.3499
▁ಎದುರಿಸ	-11.3499
▁ತಾಪಮಾನ	-11.3499
▁ನಡವಳಿಕೆಯ	-11.3499
▁ನಿಧಾನ	-11.3499
▁ನಿಲ್ದಾಣ	-11.3499
▁ಸನ್ನಿವೇಶ	-11.3499
▁ಸೇಂಟ್	-11.3499
▁അടങ്ങിയ	-11.3499
▁അവതരിപ്പിച്ച	-11.3499
▁അർത്ഥ	-11.3499
▁ചികിത്സ	-11.3499
▁പ്രതിരോധ	-11.3499
▁മ്യൂട്ടേഷ	-11.3499
▁റൊമാന	-11.3499
▁സംസാരിക്ക	-11.3499
FTIR	-11.3499
Giza	-11.3499
September	-11.3499
ability	-11.3499
check	-11.3499
claimed	-11.3499
cultural	-11.3499
effects	-11.3499
gender	-11.3499
mobile	-11.3499
third	-11.3499
कंट्रोल	-11.3499
ग्राउंड	-11.3499
चार्ल्स	-11.3499
द्वितीय	-11.3499
पुरवठा	-11.3499
व्यतिरिक्त	-11.3499
साब्लांका	-11.3499
स्वीडिश	-11.3499
কেবলমাত্র	-11.3499
গ্রেট	-11.3499
ঘন্টা	-11.3499
তাত্ত্বিক	-11.3499
ত্যাগ	-11.3499
নষ্ট	-11.3499
পাশাপাশি	-11.3499
ফ্রন্ট	-11.3499
বৃহৎ	-11.3499
মন্তব্য	-11.3499
মোবাইল	-11.3499
সম্পন্ন	-11.3499
োগ্রাফি	-11.3499
பரவலான	-11.3499
பொழுது	-11.3499
மொபைல்	-11.3499
ற்பகுதியில்	-11.3499
అధ్యక్ష	-11.3499
ఎవరైనా	-11.3499
నాగరికత	-11.3499
నిటారుగా	-11.3499
ప్రోటీన్	-11.3499
వచ్చని	-11.3499
ಪೋರ್ಟ್	-11.3499
ಬಲ್ಲದು	-11.3499
ಬೆಳಕು	-11.3499
ಬೇಕಾಗಿತ್ತು	-11.3499
ಬೇಕೆಂದು	-11.3499
ಸ್ಕಾಫೋಲ್ಡ	-11.3499
അർത്ഥമാക്കുന്നത്	-11.3499
കാർബൺ	-11.3499
കോൺഗ്രസ്	-11.3499
ത്തുനിന്ന്	-11.3499
ദശലക്ഷക്കണക്കിന്	-11.3499
പടിഞ്ഞാറൻ	-11.3499
സംഖ്യ	-11.3499
▁(09:19	-11.3499
▁Atlantic	-11.3499
▁British	-11.3499
▁Central	-11.3499
▁FIFA	-11.3499
▁Falkland	-11.3499
▁First	-11.3499
▁Gingrich	-11.3499
▁Hospital	-11.3499
▁Kanjar	-11.3499
▁Martelly	-11.3499
▁Ocean	-11.3499
▁Office	-11.3499
▁People	-11.3499
▁Revolution	-11.3499
▁Scientists	-11.3499
▁Several	-11.3499
▁Sundarbans	-11.3499
▁Three	-11.3499
▁Turkey	-11.3499
▁WWII	-11.3499
▁above	-11.3499
▁according	-11.3499
▁aircraft	-11.3499
▁already	-11.3499
▁ancient	-11.3499
▁attack	-11.3499
▁bridge	-11.3499
▁campaign	-11.3499
▁central	-11.3499
▁centuries	-11.3499
▁chemical	-11.3499
▁citizens	-11.3499
▁civilization	-11.3499
▁coloni	-11.3499
▁continue	-11.3499
▁cruise	-11.3499
▁customs	-11.3499
▁destination	-11.3499
▁determine	-11.3499
▁earthquake	-11.3499
▁elements	-11.3499
▁energy	-11.3499
▁experiment	-11.3499
▁facilities	-11.3499
▁frequen	-11.3499
▁galaxy	-11.3499
▁happen	-11.3499
▁immediate	-11.3499
▁independent	-11.3499
▁insects	-11.3499
▁international	-11.3499
▁little	-11.3499
▁material	-11.3499
▁military	-11.3499
▁morning	-11.3499
▁nominations	-11.3499
▁outbreak	-11.3499
▁patient	-11.3499
▁peace	-11.3499
▁percent	-11.3499
▁pound	-11.3499
▁probably	-11.3499
▁question	-11.3499
▁resources	-11.3499
▁separate	-11.3499
▁sleep	-11.3499
▁somewhat	-11.3499
▁structure	-11.3499
▁summer	-11.3499
▁surrounding	-11.3499
▁vehicle	-11.3499
▁website	-11.3499
▁अद्याप	-11.3499
▁अनुमति	-11.3499
▁अनुसंधान	-11.3499
▁अफ्रीकी	-11.3499
▁अर्जेंटीना	-11.3499
▁आइलैंड	-11.3499
▁आकर्षण	-11.3499
▁इंसान	-11.3499
▁उद्भव	-11.3499
▁उल्लंघन	-11.3499
▁एजेंट	-11.3499
▁ओलंपिक	-11.3499
▁क्वचित	-11.3499
▁ख्रिश्चन	-11.3499
▁गणतंत्र	-11.3499
▁गणराज्य	-11.3499
▁गिंगरिच	-11.3499
▁गुणवत्त	-11.3499
▁ग्राहक	-11.3499
▁चढ़ा	-11.3499
▁टूर्नामेंट	-11.3499
▁ढूँढ	-11.3499
▁तुलनेने	-11.3499
▁दशलक्ष	-11.3499
▁दुश्मन	-11.3499
▁दूसरा	-11.3499
▁धोकादायक	-11.3499
▁निरीक्षण	-11.3499
▁निष्कर्ष	-11.3499
▁परवानगी	-11.3499
▁परीक्षण	-11.3499
▁पहिली	-11.3499
▁पौधों	-11.3499
▁प्रतिस्पर्धी	-11.3499
▁प्रोत्साहित	-11.3499
▁बर्ताव	-11.3499
▁बल्कि	-11.3499
▁बावजूद	-11.3499
▁बिल्लियाँ	-11.3499
▁ब्लॉसम	-11.3499
▁भुगतान	-11.3499
▁मजबूत	-11.3499
▁माहौल	-11.3499
▁मुताबिक	-11.3499
▁मुश्किल	-11.3499
▁यशस्वी	-11.3499
▁राजवंश	-11.3499
▁रॉयल	-11.3499
▁लंबी	-11.3499
▁लंबे	-11.3499
▁वसाहत	-11.3499
▁वीडियो	-11.3499
▁वैशिष्ट्य	-11.3499
▁शक्तिशाली	-11.3499
▁शेंगेन	-11.3499
▁संगोपन	-11.3499
▁संसाधन	-11.3499
▁सन्मान	-11.3499
▁सप्टेंबर	-11.3499
▁सामूहिक	-11.3499
▁सितंबर	-11.3499
▁सिमिनॉफ	-11.3499
▁सूक्ष्म	-11.3499
▁सूचित	-11.3499
▁सैटेलाइट	-11.3499
▁स्वदेशी	-11.3499
▁हांगकांग	-11.3499
▁हार्बर	-11.3499
▁অতিক্রম	-11.3499
▁অধিকাংশ	-11.3499
▁আটলান্টিক	-11.3499
▁আন্তর্জাতিক	-11.3499
▁আলোচনা	-11.3499
▁আশেপাশে	-11.3499
▁উজ্জ্বল	-11.3499
▁উদ্ভাবন	-11.3499
▁উদ্যান	-11.3499
▁উপস্থাপন	-11.3499
▁এখানে	-11.3499
▁কংগ্রেস	-11.3499
▁কাঠামো	-11.3499
▁কার্বন	-11.3499
▁ক্ষুদ্র	-11.3499
▁গবেষকরা	-11.3499
▁গভর্নর	-11.3499
▁জাতিসংঘ	-11.3499
▁টেলিভিশন	-11.3499
▁তবুও	-11.3499
▁থাকলে	-11.3499
▁নক্ষত্র	-11.3499
▁পরিচালক	-11.3499
▁পরিচালিত	-11.3499
▁পরিষেবা	-11.3499
▁প্রচলিত	-11.3499
▁প্রয়োগ	-11.3499
▁ফলাফল	-11.3499
▁বেঁচে	-11.3499
▁ব্রিটেন	-11.3499
▁ব্লগ	-11.3499
▁ভৌগলিক	-11.3499
▁মনোনয়ন	-11.3499
▁মস্তিষ্ক	-11.3499
▁মুদ্রা	-11.3499
▁রাসায়নিক	-11.3499
▁শুধু	-11.3499
▁সক্রিয়	-11.3499
▁সত্ত্বেও	-11.3499
▁সরাসরি	-11.3499
▁সিস্টেম	-11.3499
▁সেপ্টেম্বর	-11.3499
▁সোভিয়েত	-11.3499
▁স্থায়ী	-11.3499
▁স্রোত	-11.3499
▁அட்லாண்டிக்	-11.3499
▁அதிர்ச்சி	-11.3499
▁அனைவருக்கும	-11.3499
▁அனைவரும்	-11.3499
▁ஆகஸ்ட்	-11.3499
▁ஆண்களுக்கான	-11.3499
▁ஆயிரக்கணக்கான	-11.3499
▁இஸ்திரி	-11.3499
▁உடனடியாக	-11.3499
▁எவ்வாறு	-11.3499
▁ஏற்கனவே	-11.3499
▁கடற்படை	-11.3499
▁கண்டுபிடித்த	-11.3499
▁கவனம்	-11.3499
▁கீழே	-11.3499
▁குடிமக்கள	-11.3499
▁குறுகிய	-11.3499
▁சர்க்கரை	-11.3499
▁சுலபமாக	-11.3499
▁செங்குத்த	-11.3499
▁ஜெர்மன்	-11.3499
▁தேர்வு	-11.3499
▁தொலைக்காட்சி	-11.3499
▁தொலைபேசி	-11.3499
▁நன்றாக	-11.3499
▁நிலப்பரப்ப	-11.3499
▁பிரிட்டிஷ்	-11.3499
▁பிலிப்பைன்	-11.3499
▁பிளாக்	-11.3499
▁புரிந்துகொள்ள	-11.3499
▁பூனைகள்	-11.3499
▁பெருங்கடல	-11.3499
▁மரபணு	-11.3499
▁வணிக	-11.3499
▁வாழ்வாதார	-11.3499
▁விண்மீன	-11.3499
▁விண்வெளி	-11.3499
▁అంచనా	-11.3499
▁అట్లాంటిక్	-11.3499
▁అధ్యయనం	-11.3499
▁అనుగుణంగా	-11.3499
▁ఆఫ్రికన్	-11.3499
▁ఆర్థిక	-11.3499
▁ఇంటర్నెట్	-11.3499
▁ఇప్పటికీ	-11.3499
▁ఉద్యమ	-11.3499
▁ఎన్నడూ	-11.3499
▁ఏజెంట్	-11.3499
▁ఏదైనా	-11.3499
▁కిలోమీటర్ల	-11.3499
▁ఖర్చు	-11.3499
▁గవర్నర్	-11.3499
▁గెలాక్సీ	-11.3499
▁చెల్లించ	-11.3499
▁చేశాడు	-11.3499
▁టోర్నమెంట్	-11.3499
▁ట్రావెల్	-11.3499
▁తరచూ	-11.3499
▁నిరాకరించ	-11.3499
▁పరిగణించబడ	-11.3499
▁పరిస్థితి	-11.3499
▁పొడవు	-11.3499
▁ప్రకృతి	-11.3499
▁ప్రయత్నిస్త	-11.3499
▁ప్రారంభమైంది	-11.3499
▁ఫార్మాట్	-11.3499
▁ఫోటోగ్రాఫర్	-11.3499
▁బహుశా	-11.3499
▁బిల్లు	-11.3499
▁బ్రిటన్	-11.3499
▁మిగిలిన	-11.3499
▁మిమ్మల్ని	-11.3499
▁మొబైల్	-11.3499
▁మోల్డోవా	-11.3499
▁మ్యాచ్	-11.3499
▁రసాయన	-11.3499
▁రిపబ్లిక్	-11.3499
▁వేధింపుల	-11.3499
▁వ్యక్తులను	-11.3499
▁వ్యవసాయ	-11.3499
▁శత్రువు	-11.3499
▁శాటిలైట్	-11.3499
▁సంగీత	-11.3499
▁సంతకం	-11.3499
▁సమర్థవంతంగా	-11.3499
▁సిట్టింగ్	-11.3499
▁సుందర్	-11.3499
▁సృజనాత్మక	-11.3499
▁సృష్టించ	-11.3499
▁స్వాధీనం	-11.3499
▁ಅಂತರರಾಷ್ಟ್ರೀಯ	-11.3499
▁ಅಟ್ಲಾಂಟಿಕ್	-11.3499
▁ಆಗಾಗ್ಗೆ	-11.3499
▁ಇಂಟರ್ನೆಟ್	-11.3499
▁ಇಸ್ತ್ರಿ	-11.3499
▁ಉದ್ದೇಶ	-11.3499
▁ಉಷ್ಣ	-11.3499
▁ಏಕೈಕ	-11.3499
▁ಒಲಿಂಪಿಕ್	-11.3499
▁ಕನಿಷ್ಠ	-11.3499
▁ಕಾಯ್ದಿರಿಸ	-11.3499
▁ಕೆನಡಾ	-11.3499
▁ಕ್ರಿಶ್ಚಿಯನ್	-11.3499
▁ಖಂಜರ್	-11.3499
▁ಗಮನಾರ್ಹ	-11.3499
▁ಗುಣಮಟ್ಟ	-11.3499
▁ಗುರುತಿಸ	-11.3499
▁ತೈವಾನ್	-11.3499
▁ನ್ಯಾಯಾಲಯ	-11.3499
▁ಪದಾರ್ಥ	-11.3499
▁ಪರಿಣಾಮಕಾರಿಯಾಗಿ	-11.3499
▁ಪಶ್ಚಿಮ	-11.3499
▁ಪ್ರಭೇದ	-11.3499
▁ಪ್ರೇರೇಪಿಸ	-11.3499
▁ಬ್ರಿಟಿಷ್	-11.3499
▁ಭಕ್ಷ್ಯ	-11.3499
▁ಭೀಕರ	-11.3499
▁ಭೌಗೋಳಿಕ	-11.3499
▁ಮಿಶ್ರ	-11.3499
▁ಮೊಬೈಲ್	-11.3499
▁ಯುರೋಪಿಯನ್	-11.3499
▁ವಿಶ್ವವಿದ್ಯಾಲಯ	-11.3499
▁ವಿಸ್ತರಿಸ	-11.3499
▁ವೀಕ್ಷಣೆ	-11.3499
▁ಸಂದರ್ಭದಲ್ಲಿ	-11.3499
▁ಸಂಯೋಜನೆ	-11.3499
▁ಸರಿಯಾಗಿ	-11.3499
▁ಸೂಕ್ತ	-11.3499
▁ಸೆಪ್ಟೆಂಬರ್	-11.3499
▁ಸೌಲಭ್ಯಗಳ	-11.3499
▁ಹೊರತುಪಡಿಸಿ	-11.3499
▁ಹೋದಾಗ	-11.3499
▁അദ്ദേഹത്തെ	-11.3499
▁ആകർഷിക്ക	-11.3499
▁ഇതുവരെ	-11.3499
▁ഉൾക്കൊള്ളുന്ന	-11.3499
▁ഒളിമ്പിക്	-11.3499
▁കഞ്ചാർ	-11.3499
▁കേസുകൾ	-11.3499
▁ചുഴലിക്കാറ്റ	-11.3499
▁ട്രാഫിക്	-11.3499
▁തമ്മിലുള്ള	-11.3499
▁തുടക്കത്തിൽ	-11.3499
▁തൂവലുകൾ	-11.3499
▁ദശലക്ഷം	-11.3499
▁പങ്കിടുന്ന	-11.3499
▁പരിശോധിക്കുക	-11.3499
▁പിന്നീട്	-11.3499
▁പൂർണ്ണ	-11.3499
▁പ്രവിശ്യ	-11.3499
▁പ്രവേശന	-11.3499
▁പ്രസിദ്ധീകര	-11.3499
▁പ്രസ്താവന	-11.3499
▁ഫെഡറൽ	-11.3499
▁ബിസിനസ്സ	-11.3499
▁ഭൂപ്രദേശ	-11.3499
▁വ്യക്തിഗത	-11.3499
▁വ്യാപാര	-11.3499
▁ശരീര	-11.3499
▁ശാസ്ത്രീയ	-11.3499
▁സാന്നിധ്യ	-11.3499
▁സുന്ദർബൻ	-11.3499
▁സ്ഥാപിച്ച	-11.3499
▁സ്ഥിതി	-11.3499
▁സ്ഥിരീകരിക്ക	-11.3499
प्रोटीन	-11.3499
महाद्वीप	-11.3499
প্রোটিন	-11.3499
க்கிழமை	-11.3499
பூர்வ	-11.3499
ப்பொருட்கள	-11.3499
▁combine	-11.3499
▁regard	-11.3499
▁कामगिरी	-11.3499
▁ख्रिस्त	-11.3499
▁डीएनए	-11.3499
▁दुर्दैव	-11.3499
▁न्यायालय	-11.3499
▁प्रतियोग	-11.3499
▁ब्रिटन	-11.3499
▁मार्टेली	-11.3499
▁वर्णन	-11.3499
▁वर्षांपूर्वी	-11.3499
▁हॉस्पिटल	-11.3499
▁অনুসন্ধান	-11.3499
▁এজেন্ট	-11.3499
▁জর্জ	-11.3499
▁টুর্নামেন্ট	-11.3499
▁নাগরিক	-11.3499
▁ব্যাপারে	-11.3499
▁அறிகுறி	-11.3499
▁அவசியம	-11.3499
▁கல்லறை	-11.3499
▁குறிப்பிடப்பட	-11.3499
▁குளிர்கால	-11.3499
▁சகோதரி	-11.3499
▁சுழற்சி	-11.3499
▁துருக்கி	-11.3499
▁பின்பற்ற	-11.3499
▁பிரச்சார	-11.3499
▁புரட்சி	-11.3499
▁பென்சில்	-11.3499
▁மூளை	-11.3499
▁வாக்காளர்	-11.3499
▁ఉత్పరివర్తన	-11.3499
▁ఒప్పందాల	-11.3499
▁కార్బన్	-11.3499
▁కార్యకలాపాల	-11.3499
▁కొద్ది	-11.3499
▁చేర్చబడ	-11.3499
▁దుకాణ	-11.3499
▁నామినేషన్ల	-11.3499
▁నివేదించ	-11.3499
▁పరిణామ	-11.3499
▁పాయింట్	-11.3499
▁పిలవబడ	-11.3499
▁ప్రమాదాల	-11.3499
▁ప్రేక్షకుల	-11.3499
▁బిడ్డ	-11.3499
▁సూచనల	-11.3499
▁ಆಧರಿಸಿ	-11.3499
▁ಕೃಷಿ	-11.3499
▁ವೀಸಾ	-11.3499
▁ವ್ಯಕ್ತಪಡಿಸ	-11.3499
▁ಶೈಲಿಯ	-11.3499
▁ಸೇತುವೆ	-11.3499
▁അംഗീകരിക്ക	-11.3499
▁ഉപേക്ഷിക്ക	-11.3499
▁ഏറ്റെടുക്ക	-11.3499
▁കടന്നുപോക	-11.3499
▁കടൽത്തീര	-11.3499
▁കൃഷി	-11.3499
▁പ്രകാശ	-11.3499
▁മുതിർന്ന	-11.3499
▁സഹോദര	-11.3499
▁സ്ഥലമാണ	-11.3499
▁cycl	-11.3499
▁type	-11.3499
▁మూత్ర	-11.3499
▁പ്രവർത്തിച്ച	-11.3499
▁സാധ്യമ	-11.3499
▁define	-11.3499
▁आखिर	-11.3499
▁আদালত	-11.3499
▁ప్రచుర	-11.3499
▁ಬದುಕ	-11.3499
▁ನೀತಿಯ	-11.3499
▁দেবতা	-11.3499
▁ஆதரவ	-11.3499
▁ಸರಣಿ	-11.3499
abuse	-11.3499
▁மடங்கு	-11.3499
▁ಹೆದರ	-11.3499
പരിചിത	-11.3499
▁വൈറസ	-11.3499
market	-11.3499
വിദ്യാർത്ഥികളെ	-11.3499
▁మేనేజ	-11.3499
▁ಕಟ್ಟಡಗಳ	-11.3499
▁వనరుల	-11.3499
▁వివరించ	-11.3499
▁പെട്ടെന്ന	-11.3499
தொழில்	-11.3499
▁agree	-11.3499
க்காரர்கள	-11.3499
▁వివరాల	-11.3499
▁ಸುದ್ದಿ	-11.3499
ಲೋಹಗಳ	-11.3499
▁கனடா	-11.3499
கொள்ளுங்கள்	-11.3499
▁ಸರಕುಗಳ	-11.3499
घरेलू	-11.3499
▁కల్పి	-11.3499
▁ಕುಳಿತ	-11.3499
ಸಾಧ್ಯತೆಯ	-11.3499
ಸ್ಪೆಕ್ಟ	-11.3499
వ్యక్తిగత	-11.3499
हिंसक	-11.3499
▁appl	-11.3499
▁घालव	-11.3499
Japanese	-11.3499
లేదని	-11.3499
मर्याद	-11.3499
▁மாசுப	-11.3499
यहूदी	-11.3499
▁బ్లాగ	-11.3499
▁தொலைவில	-11.35
बारिश	-11.35
ప్రేమ	-11.35
ക്കെതിരെ	-11.3501
▁வரையறுக்க	-11.3501
ிவிட்டன	-11.3501
▁ಬರೆಯಲಾಗ	-11.3501
▁trade	-11.3502
▁పరిగణి	-11.3502
▁പ്രേരിപ്പി	-11.3509
रिस्थिति	-11.3512
▁माणसा	-11.3515
നിർത്തുന്ന	-11.3526
▁രേഖപ്പെടുത്ത	-11.3543
நேரங்களில்	-11.3581
▁പുനർനിർമ്മ	-11.3587
രീതികൾ	-11.3611
விளைவுகள	-11.3649
പാളി	-11.3733
శాస్త్రం	-11.3779
പഠനം	-11.4232
স্বাধীনতা	-11.4278
पश्चिमी	-11.4345
▁ಆಫ್ರಿಕಾ	-11.4661
formed	-11.4763
“	-11.5257
ఈ	-11.5258
നിരീക്ഷണ	-11.5503
ಸಂಸ್ಥೆಯ	-11.5838
ബന്ധമ	-11.5939
నిర్మాణం	-11.5965
നിയന്ത്ര	-11.5981
▁ఇష్టపడ	-11.5983
▁ಕರೆಯಲಾಗ	-11.5996
▁సెయింట్	-11.5999
ওসেলোট	-11.5999
ಗಂಭೀರ	-11.5999
▁हस्तक्षेप	-11.5999
▁ద్వీపకల్ప	-11.5999
▁మూసివే	-11.5999
▁ತನಿಖೆ	-11.5999
▁ಸಿದ್ಧಾಂತ	-11.5999
▁പൂർത്തിയാ	-11.5999
विषाणू	-11.5999
পনিবেশিক	-11.5999
ಷ್ಠಿ	-11.5999
ಹಿಂಸಾತ್ಮಕ	-11.5999
▁encourag	-11.5999
▁কার্যক্রম	-11.5999
▁ধ্বংস	-11.5999
▁கடலோர	-11.5999
▁செயல்பாட்ட	-11.5999
▁வலியுறுத்த	-11.5999
▁అభ్యర్థ	-11.5999
▁ఉపగ్రహ	-11.5999
▁ఎలుగుబ	-11.5999
▁ప్రణాళిక	-11.5999
▁భవిష్యత్తు	-11.5999
▁మధుమేహ	-11.5999
▁ముగింపు	-11.5999
▁ಉದ್ಯಾನ	-11.5999
▁ಕೆಳಭಾಗ	-11.5999
▁ಭವಿಷ್ಯದ	-11.5999
▁ವಸ್ತ್ರ	-11.5999
▁ಶ್ರೀಮಂತ	-11.5999
▁ಸರೋವರಗಳ	-11.5999
▁ഉപജീവന	-11.5999
▁നാഗരിക	-11.5999
▁വിശേഷിപ്പി	-11.5999
▁സ്കീയിംഗ	-11.5999
Dunlap	-11.5999
Number	-11.5999
Pittsburgh	-11.5999
confirmed	-11.5999
continent	-11.5999
district	-11.5999
sibility	-11.5999
sphere	-11.5999
ymnastics	-11.5999
अदृश्य	-11.5999
ओयापोक	-11.5999
खरोखर	-11.5999
ग्रस्त	-11.5999
टिम्बकटू	-11.5999
पिट्सबर्ग	-11.5999
ब्लॅक	-11.5999
राजनीतिक	-11.5999
विद्यार्थ्यांना	-11.5999
व्यवस्थित	-11.5999
श्लेषण	-11.5999
हाइकिंग	-11.5999
्हिडिओ	-11.5999
তিহ্যবাহী	-11.5999
পূর্ন	-11.5999
পোকামাকড়	-11.5999
প্রাপ্তবয়স্কদের	-11.5999
ব্যাপী	-11.5999
ব্ল্যাক	-11.5999
মহাদেশ	-11.5999
শারীরিক	-11.5999
শ্রেণী	-11.5999
সম্মত	-11.5999
সাংবাদিক	-11.5999
হাইকিং	-11.5999
ராய்ச்சியாளர்கள்	-11.5999
விசாரணை	-11.5999
ఒరిజినల్	-11.5999
క్రమశిక్షణ	-11.5999
నిర్దిష్ట	-11.5999
న్యూజిలాండ్	-11.5999
వెయ్యి	-11.5999
హైకింగ్	-11.5999
ಗೊಳಗಾ	-11.5999
ನಿಜವಾಗಿಯೂ	-11.5999
ನ್ಯೂಜಿಲೆಂಡ್	-11.5999
ಬಿರುಗಾಳಿ	-11.5999
ವಿದ್ಯಾರ್ಥಿಗಳನ್ನು	-11.5999
ಿಕೊಳ್ಳುತ್ತವೆ	-11.5999
ഇന്ത്യൻ	-11.5999
ദ്ദിഷ്ട	-11.5999
മൊബൈൽ	-11.5999
ശാസ്ത്രം	-11.5999
സാംസ്കാരിക	-11.5999
സ്വാതന്ത്ര്യ	-11.5999
ിലുടനീളം	-11.5999
▁(10-60	-11.5999
▁10:00-11:00	-11.5999
▁Afghanistan	-11.5999
▁Amazon	-11.5999
▁Ancient	-11.5999
▁Auckland	-11.5999
▁Blacks	-11.5999
▁Canadian	-11.5999
▁Casablanca	-11.5999
▁Davey	-11.5999
▁Egypt	-11.5999
▁Hershey	-11.5999
▁Hurricane	-11.5999
▁Independence	-11.5999
▁Kingdom	-11.5999
▁Mountain	-11.5999
▁PTWC	-11.5999
▁Police	-11.5999
▁Portuguese	-11.5999
▁Scaffold	-11.5999
▁Siminoff	-11.5999
▁Singapore	-11.5999
▁Slalom	-11.5999
▁Swedish	-11.5999
▁Tasmania	-11.5999
▁TogiNet	-11.5999
▁UNESCO	-11.5999
▁Valley	-11.5999
▁Virtual	-11.5999
▁Wednesday	-11.5999
▁WiFi	-11.5999
▁Zealand	-11.5999
▁abandon	-11.5999
▁addition	-11.5999
▁agency	-11.5999
▁approach	-11.5999
▁attract	-11.5999
▁bhajan	-11.5999
▁comfortable	-11.5999
▁competitor	-11.5999
▁currency	-11.5999
▁display	-11.5999
▁easily	-11.5999
▁emergency	-11.5999
▁envelope	-11.5999
▁evidence	-11.5999
▁evolution	-11.5999
▁governor	-11.5999
▁grammar	-11.5999
▁indigenous	-11.5999
▁label	-11.5999
▁natural	-11.5999
▁occurred	-11.5999
▁physical	-11.5999
▁policy	-11.5999
▁previous	-11.5999
▁prompt	-11.5999
▁province	-11.5999
▁rebuilt	-11.5999
▁reconstructi	-11.5999
▁referred	-11.5999
▁response	-11.5999
▁school	-11.5999
▁science	-11.5999
▁signed	-11.5999
▁significan	-11.5999
▁signs	-11.5999
▁suffer	-11.5999
▁themselves	-11.5999
▁tournament	-11.5999
▁written	-11.5999
▁yesterday	-11.5999
▁अजिबात	-11.5999
▁अपेक्षाकृत	-11.5999
▁अफगाणिस्तान	-11.5999
▁अफ़गानिस्तान	-11.5999
▁अभिव्यक्त	-11.5999
▁अयशस्वी	-11.5999
▁अर्थव्यवस्थ	-11.5999
▁असोसिएशन	-11.5999
▁आकर्षक	-11.5999
▁आफ्रिकी	-11.5999
▁इलेक्ट्रॉन	-11.5999
▁उत्परिवर्तन	-11.5999
▁उन्हाळ	-11.5999
▁उर्वरित	-11.5999
▁उल्लेखनीय	-11.5999
▁एजेंसी	-11.5999
▁एल्सवर्थ	-11.5999
▁ओयापॉक	-11.5999
▁कधीकधी	-11.5999
▁कॅनेडियन	-11.5999
▁क्रेडिट	-11.5999
▁खंडेलवाल	-11.5999
▁ख़त्म	-11.5999
▁ख़राब	-11.5999
▁चक्रीवादळ	-11.5999
▁ज़िम्मेदार	-11.5999
▁जिमनास्टिक्स	-11.5999
▁टेलिव्हिजन	-11.5999
▁टेलीविज़न	-11.5999
▁ट्रांसपोर्ट	-11.5999
▁ट्रॅव्हल	-11.5999
▁तपशीलवार	-11.5999
▁थिएटर	-11.5999
▁थोड्या	-11.5999
▁दुखापत	-11.5999
▁दृष्टिकोण	-11.5999
▁दृष्टीक	-11.5999
▁धनुष्य	-11.5999
▁ध्वनि	-11.5999
▁नियंत्रक	-11.5999
▁निवडणुकी	-11.5999
▁न्यूयॉर्क	-11.5999
▁परेशान	-11.5999
▁पीटर्सबर्ग	-11.5999
▁पुर्तगाल	-11.5999
▁प्रधानमंत्री	-11.5999
▁प्रवक्त	-11.5999
▁प्रस्तुत	-11.5999
▁प्राकृतिक	-11.5999
▁प्रोटॉन	-11.5999
▁प्रौद्योगिकी	-11.5999
▁फ़ेस्टिवल	-11.5999
▁फोटोग्राफर	-11.5999
▁बिश्केक	-11.5999
▁ब्रॉडसाइड	-11.5999
▁भयानक	-11.5999
▁मृतदेह	-11.5999
▁मेडिसिन	-11.5999
▁मोल्दोवा	-11.5999
▁म्यूज़िक	-11.5999
▁यूनाइटेड	-11.5999
▁रणनीति	-11.5999
▁रसायन	-11.5999
▁रेकॉर्ड	-11.5999
▁लॅटिन	-11.5999
▁विद्यार्थी	-11.5999
▁विस्तृत	-11.5999
▁व्यावसायिक	-11.5999
▁शीर्ष	-11.5999
▁सर्वोच्च	-11.5999
▁सशक्त	-11.5999
▁सिंगापुर	-11.5999
▁सिंगापूर	-11.5999
▁स्कूल	-11.5999
▁स्कैफ़ोल्ड	-11.5999
▁स्पेक्ट्रम	-11.5999
▁स्फिंक्स	-11.5999
▁स्वयंसेवक	-11.5999
▁स्वरुपात	-11.5999
▁हॉटेल	-11.5999
▁हॉवर्ड	-11.5999
▁অদ্ভুত	-11.5999
▁অসংখ্য	-11.5999
▁আনুমানিক	-11.5999
▁আবিষ্কার	-11.5999
▁ইউনিয়ন	-11.5999
▁ইচ্ছা	-11.5999
▁উত্তেজিত	-11.5999
▁কর্মকর্তারা	-11.5999
▁কাতালান	-11.5999
▁কার্যকারিতা	-11.5999
▁কোম্পানি	-11.5999
▁কৌশল	-11.5999
▁খ্রিস্টপূর্ব	-11.5999
▁গৃহীত	-11.5999
▁গোষ্ঠী	-11.5999
▁ঘাঁটি	-11.5999
▁চারপাশে	-11.5999
▁ছাড়ে	-11.5999
▁ট্র্যাফিক	-11.5999
▁ডায়নোসরের	-11.5999
▁ডিজাইন	-11.5999
▁তহবিল	-11.5999
▁দূষণ	-11.5999
▁দেখুন	-11.5999
▁ধারাবাহিক	-11.5999
▁নিরাপত্তা	-11.5999
▁নিশ্চিতভাবে	-11.5999
▁পঞ্চম	-11.5999
▁পয়েন্ট	-11.5999
▁পরামর্শ	-11.5999
▁পরিচালন	-11.5999
▁পর্তুগিজ	-11.5999
▁পাউন্ড	-11.5999
▁পারমাণবিক	-11.5999
▁পিতামাতা	-11.5999
▁পুরোপুরি	-11.5999
▁পেয়েছে	-11.5999
▁প্রজন্ম	-11.5999
▁প্রতিবন্ধ	-11.5999
▁প্রশিক্ষণ	-11.5999
▁প্রেসিডেন্ট	-11.5999
▁ফরম্যাট	-11.5999
▁ফ্যাশন	-11.5999
▁বিদেশে	-11.5999
▁বিদ্যুৎ	-11.5999
▁বিনোদন	-11.5999
▁বিবর্তনের	-11.5999
▁বিবেচিত	-11.5999
▁বিস্ফোর	-11.5999
▁বৈচিত্র্য	-11.5999
▁ব্রিটিশ	-11.5999
▁ভবিষ্যতে	-11.5999
▁মধ্যযুগের	-11.5999
▁মর্যাদা	-11.5999
▁মহাকাশে	-11.5999
▁মূত্র	-11.5999
▁মোটামুটি	-11.5999
▁রাজবংশ	-11.5999
▁সংখ্যক	-11.5999
▁সংঘর্ষ	-11.5999
▁সচেতন	-11.5999
▁সবথেকে	-11.5999
▁সমর্থন	-11.5999
▁সম্ভাব্য	-11.5999
▁সিঙ্গাপুর	-11.5999
▁সূচনা	-11.5999
▁স্ক্যাফোল্ড	-11.5999
▁স্পষ্ট	-11.5999
▁স্প্যানিশ	-11.5999
▁হোটেল	-11.5999
▁அச்சுறுத்தல	-11.5999
▁அதனுடைய	-11.5999
▁அதிகாரப்பூர்வ	-11.5999
▁அவ்வளவு	-11.5999
▁ஆலோசனை	-11.5999
▁இறைச்சி	-11.5999
▁உள்நாட்டு	-11.5999
▁எடுத்துக்காட்ட	-11.5999
▁எரிமலை	-11.5999
▁எவ்வளவு	-11.5999
▁ஏற்படலாம்	-11.5999
▁ஏற்படவில்லை	-11.5999
▁ஐந்தாவது	-11.5999
▁காலகட்டத்தில்	-11.5999
▁கிறிஸ்தவ	-11.5999
▁சிங்கப்பூர்	-11.5999
▁சுகாதார	-11.5999
▁செப்டம்பர்	-11.5999
▁ஜிம்னாஸ்டிக்ஸ்	-11.5999
▁தற்போதைய	-11.5999
▁தேர்ந்தெடு	-11.5999
▁நிச்சயமாக	-11.5999
▁பயன்பாட்ட	-11.5999
▁பரிணாம	-11.5999
▁பிரச்சினைகள	-11.5999
▁பெருமளவு	-11.5999
▁பொழுதுபோக்கு	-11.5999
▁மக்கள்தொகை	-11.5999
▁மெய்நிகர	-11.5999
▁மெல்லியதாக	-11.5999
▁மேற்கொள்ள	-11.5999
▁ரீதியாக	-11.5999
▁வல்லுனர்கள	-11.5999
▁வளிமண்டல	-11.5999
▁வேண்டாம்	-11.5999
▁అధిరోహ	-11.5999
▁అనుకూల	-11.5999
▁అభిప్రాయ	-11.5999
▁అమెజాన్	-11.5999
▁అర్జెంటీనా	-11.5999
▁ఇటాలియన్	-11.5999
▁ఇప్పటికే	-11.5999
▁ఇస్త్రీ	-11.5999
▁ఉద్యానవన	-11.5999
▁ఏడాది	-11.5999
▁ఒప్పందం	-11.5999
▁కచ్చిత	-11.5999
▁కార్యాలయం	-11.5999
▁కెనడియన్	-11.5999
▁గణనీయమైన	-11.5999
▁చారిత్ర	-11.5999
▁జిమ్నాస్టిక్స్	-11.5999
▁టెలివిజన్	-11.5999
▁డాక్టర్	-11.5999
▁డిజైన్	-11.5999
▁తల్లిదండ్రుల	-11.5999
▁తీసుకెళ్ల	-11.5999
▁దారితీసింది	-11.5999
▁నిర్ధిష్ట	-11.5999
▁పనిచేశాడు	-11.5999
▁పిలువబడ	-11.5999
▁పునర్నిర్మాణ	-11.5999
▁పునర్నిర్మించ	-11.5999
▁ప్రత్యక్ష	-11.5999
▁ప్రమాదకరమైన	-11.5999
▁ప్రయత్నాలు	-11.5999
▁ప్రాముఖ్య	-11.5999
▁ఫిర్యాదు	-11.5999
▁బహిరంగ	-11.5999
▁బాధ్యత	-11.5999
▁బుధవారం	-11.5999
▁బ్రిటిష్	-11.5999
▁మాంసం	-11.5999
▁మాదిరిగా	-11.5999
▁వర్చువల్	-11.5999
▁వాణిజ్య	-11.5999
▁విడిచిపెట్ట	-11.5999
▁విద్యుత్	-11.5999
▁వెడల్పు	-11.5999
▁శిక్షణ	-11.5999
▁శిబిర	-11.5999
▁షాపింగ్	-11.5999
▁సమర్పించ	-11.5999
▁సరస్సుల	-11.5999
▁సాంస్కృతిక	-11.5999
▁సాపేక్ష	-11.5999
▁సింగపూర్	-11.5999
▁సౌకర్యవంత	-11.5999
▁సౌకర్యాల	-11.5999
▁స్థిరమైన	-11.5999
▁స్వతంత్ర	-11.5999
▁ಅಫ್ಘಾನಿಸ್ತಾನ	-11.5999
▁ಅರ್ಜೆಂಟೀನಾ	-11.5999
▁ಆಕ್ರಮಣ	-11.5999
▁ಇಂದಿಗೂ	-11.5999
▁ಇಟಾಲಿಯನ್	-11.5999
▁ಇತ್ಯಾದಿ	-11.5999
▁ಇನ್ನೊಂದು	-11.5999
▁ಇಷ್ಟಪಡ	-11.5999
▁ಐತಿಹಾಸಿಕ	-11.5999
▁ಒತ್ತಾಯಿಸ	-11.5999
▁ಕಂಡುಬಂದ	-11.5999
▁ಕ್ರೀಡೆಗಳ	-11.5999
▁ಘೋಷಣೆ	-11.5999
▁ಜೈವಿಕ	-11.5999
▁ಟ್ರಾವೆಲ್	-11.5999
▁ಡೈನೋಸಾರ್	-11.5999
▁ತಾತ್ಕಾಲಿಕ	-11.5999
▁ದರ್ಜೆ	-11.5999
▁ದಶಕದಲ್ಲಿ	-11.5999
▁ದೈಹಿಕ	-11.5999
▁ನಕ್ಷತ್ರ	-11.5999
▁ನಕ್ಷತ್ರಪುಂಜದ	-11.5999
▁ನಿದ್ರೆಯ	-11.5999
▁ನಿರ್ಧಾರ	-11.5999
▁ನಿರ್ವಹಣೆ	-11.5999
▁ನೈಸರ್ಗಿಕ	-11.5999
▁ಪೌಂಡ್	-11.5999
▁ಬಿಡುಗಡೆ	-11.5999
▁ಬುಧವಾರ	-11.5999
▁ಬೆಳಿಗ್ಗೆ	-11.5999
▁ಬ್ಯಾಕ್ಟೀರಿಯಾ	-11.5999
▁ಬ್ರಿಟನ್	-11.5999
▁ಭಯಭೀತರ	-11.5999
▁ಮಧ್ಯಪ್ರಾಚ್ಯದ	-11.5999
▁ಮಸಾಲೆ	-11.5999
▁ಮಹಾಸಾಗರದ	-11.5999
▁ಮಾತನಾಡ	-11.5999
▁ಯಶಸ್ವಿ	-11.5999
▁ಯುರೋಪ್	-11.5999
▁ರಾಜವಂಶ	-11.5999
▁ರಾಸಾಯನಿಕ	-11.5999
▁ವಿದ್ಯುತ್	-11.5999
▁ವಿಶ್ಲೇಷಣ	-11.5999
▁ವ್ಯಾಕರಣ	-11.5999
▁ವ್ಯಾಪಕವಾಗಿ	-11.5999
▁ಶತ್ರುಗಳ	-11.5999
▁ಸಂವಹನ	-11.5999
▁ಸಂಸ್ಕ್ರತಿ	-11.5999
▁ಸರಿಸುಮಾರು	-11.5999
▁ಸಿಂಗಾಪುರ	-11.5999
▁ಸುತ್ತಮುತ್ತ	-11.5999
▁ಸುರಕ್ಷತ	-11.5999
▁ಸ್ಪರ್ಧಿ	-11.5999
▁ಸ್ಯಾಟಲೈಟ್	-11.5999
▁ಸ್ವಾತಂತ್ರ್ಯ	-11.5999
▁ಹಿಡಿದು	-11.5999
▁ಹೋಟೆಲ್	-11.5999
▁അണുബാധ	-11.5999
▁അധികൃതർ	-11.5999
▁അനുവദിക്കും	-11.5999
▁അമേരിക്കൻ	-11.5999
▁ആക്രമിച്ച	-11.5999
▁ആസൂത്രണം	-11.5999
▁ഇറാഖ	-11.5999
▁ഉൾപ്പടെ	-11.5999
▁എവിടെയ	-11.5999
▁ഒരിക്കലും	-11.5999
▁ഒറിജിനൽ	-11.5999
▁കൃത്യമായി	-11.5999
▁കേടുപാട	-11.5999
▁കൈകാര്യം	-11.5999
▁ചെറുതാണ	-11.5999
▁ചൈനയുടെ	-11.5999
▁ജിംനാസ്റ്റിക്സ	-11.5999
▁തദ്ദേശീയ	-11.5999
▁തലസ്ഥാനമാ	-11.5999
▁തുടക്കം	-11.5999
▁നിലകൊള്ളുന്ന	-11.5999
▁നിലവിലുള്ള	-11.5999
▁ന്യൂക്ലിയ	-11.5999
▁പതിവായി	-11.5999
▁പരിശീലന	-11.5999
▁പിരമിഡുകൾ	-11.5999
▁ഫിലിപ്പിനോ	-11.5999
▁ഫോസ്റ്റർ	-11.5999
▁മുൻകൂട്ടി	-11.5999
▁മൈക്രോ	-11.5999
▁മോൾഡോവ	-11.5999
▁റദ്ദാക്ക	-11.5999
▁ലാറ്റിൻ	-11.5999
▁ലേബൽ	-11.5999
▁വളരെയധികം	-11.5999
▁വിലയിരുത്ത	-11.5999
▁വെർച്വൽ	-11.5999
▁വ്യാകരണ	-11.5999
▁സുസ്ഥിര	-11.5999
▁സോവിയറ്റ്	-11.5999
▁സ്പാനിഷ്	-11.5999
▁ഹെയ്ത്തിയ	-11.5999
eninsula	-11.5999
nuclear	-11.5999
ইঁদুর	-11.5999
స్వాతంత్	-11.5999
കൊടുക്കുന്നത	-11.5999
സോഫ്റ്റ്	-11.5999
▁Bishkek	-11.5999
▁Ohio	-11.5999
▁Philippine	-11.5999
▁advance	-11.5999
▁drink	-11.5999
▁foreign	-11.5999
▁आफ्रिकन	-11.5999
▁उद्देश	-11.5999
▁जिम्नॅस्टिक्स	-11.5999
▁टेक्सास	-11.5999
▁रुग्ण	-11.5999
▁शिकायत	-11.5999
▁स्कॉट	-11.5999
▁स्नोबोर्ड	-11.5999
▁অভ্যন্তরীণ	-11.5999
▁আদিবাসী	-11.5999
▁ওষুধ	-11.5999
▁কৃষ্ণ	-11.5999
▁ট্যাক্স	-11.5999
▁দর্শক	-11.5999
▁বিপরীত	-11.5999
▁அங்கீகரிக்கப்பட	-11.5999
▁எதிர்மறை	-11.5999
▁எப்போதாவது	-11.5999
▁தேவாலய	-11.5999
▁நியாயமான	-11.5999
▁நீதிமன்ற	-11.5999
▁பயன்பாடு	-11.5999
▁பழங்குடியின	-11.5999
▁பிரதிநிதி	-11.5999
▁மீட்டெடுக்க	-11.5999
▁ஸ்வீடன	-11.5999
▁అంతరిక్షంలో	-11.5999
▁ఆందోళన	-11.5999
▁ఆవశ్యక	-11.5999
▁ఆవిష్కర	-11.5999
▁కొంచెం	-11.5999
▁ఖైదీల	-11.5999
▁గడియారా	-11.5999
▁తీసుకువచ్చ	-11.5999
▁దృశ్యాల	-11.5999
▁దేవాలయ	-11.5999
▁నిష్పత్తి	-11.5999
▁పడిపోయ	-11.5999
▁పురుగు	-11.5999
▁పేస్ట్రీలు	-11.5999
▁ప్రయత్నించ	-11.5999
▁సరిపోల	-11.5999
▁ಇಂಗಾಲದ	-11.5999
▁ಉಂಟುಮಾಡ	-11.5999
▁ಉತ್ಪಾದಿಸ	-11.5999
▁ಕೈಗೊಳ್ಳ	-11.5999
▁ಚಳಿಗಾಲ	-11.5999
▁ತರಬೇತಿ	-11.5999
▁ಪ್ರದರ್ಶಿಸ	-11.5999
▁ಪ್ರೋತ್ಸಾಹ	-11.5999
▁ಬೇಟೆಯಾಡ	-11.5999
▁ಭಾಗವಹಿಸ	-11.5999
▁ವೀಕ್ಷಕ	-11.5999
▁ಸಂಪನ್ಮೂಲಗಳ	-11.5999
▁ಸಕ್ರಿಯವಾಗಿ	-11.5999
▁എടുക്കുന്ന	-11.5999
▁കിലോമീറ്ററു	-11.5999
▁കൂട്ടിയിടി	-11.5999
▁തലമുറ	-11.5999
▁ദുരുപയോഗ	-11.5999
▁നിറവേറ്റ	-11.5999
▁നിലനിൽക്കുന്ന	-11.5999
▁പെൻസിൽ	-11.5999
▁പ്രചാരണ	-11.5999
▁പ്രശ്നങ്ങൾ	-11.5999
▁ബഹിരാകാശ	-11.5999
▁ഭൂപ്രകൃത	-11.5999
▁മാനേജർ	-11.5999
▁മ്യൂസിയ	-11.5999
▁വെബ്സൈറ്റ	-11.5999
▁വേട്ടയാട	-11.5999
▁സഫാരി	-11.5999
▁സവിശേഷതകൾ	-11.5999
▁സിംഗപ്പ	-11.5999
▁இயல்பா	-11.5999
▁பழக்கவழக்க	-11.5999
▁வழித்தடங்கள	-11.5999
▁ಚಲಾಯಿಸ	-11.5999
▁ನಿಗದಿಸ	-11.5999
▁ವಿಮರ್ಶ	-11.5999
▁അപൂർവ	-11.5999
▁ആക്രമിക്ക	-11.5999
സാദ്ധ്യത	-11.5999
▁ಸೃಷ್ಟಿ	-11.5999
সমূহ	-11.5999
▁நினைக்கிறார்	-11.5999
▁നേരിട്ട	-11.5999
▁ലോഹങ്ങള	-11.5999
position	-11.5999
▁భవనాల	-11.5999
ആശുപത്രിയിലേക്ക്	-11.5999
অ্যাসিড	-11.5999
பதவியை	-11.5999
ಪರಿಚಯಿಸ	-11.5999
▁తిరుగు	-11.5999
▁ಸುಧಾರಿ	-11.5999
പൊതുവായി	-11.5999
ಸಾಫ್ಟ್	-11.5999
▁பணியாற்றி	-11.5999
▁ഹോങ്കോങ	-11.5999
▁பாறைகள	-11.5999
▁ನಿರಾಕರಿಸಿ	-11.5999
▁പുറപ്പെടു	-11.5999
ಸುತ್ತಲಿನ	-11.5999
▁രാസവസ്തു	-11.5999
౦చ౦డి	-11.5999
▁வாசிப்ப	-11.5999
▁அறிந்திரு	-11.5999
ంచబడ్డార	-11.6
▁తొలగి	-11.6
▁கட்டிடங்கள	-11.6001
▁திட்டங்கள	-11.6003
அர்த்தம	-11.6003
▁விருப்பங்கள	-11.6004
▁முகவர்கள	-11.6007
▁ವಹಿಸ	-11.6007
లేకపోయ	-11.6011
യുമുണ്ട	-11.6013
ചുറ്റുമുള്ള	-11.6031
കരുതലു	-11.6049
▁രൂപപ്പെട	-11.6116
ವ್ಯವಸ್ಥೆಯು	-11.6137
▁விதிக்கப்பட	-11.6163
ನುವಂಶಿಕ	-11.6187
పురుషులు	-11.6339
developed	-11.6577
ಪ್ರದೇಶದ	-11.6826
विषयक	-11.7018
▁சூழப்பட்டுள்ளத	-11.7741
▁చేయబడుతుంద	-11.8081
প্রথমে	-11.8125
ഓ	-11.8591
ഈ	-11.8593
▁বিশ্ববিদ্যালয়	-11.8984
தென்னாப்பிரிக்கா	-11.9126
▁విద్యార్థుల	-11.9164
പ്രാധാന്യ	-11.9332
▁ಸೇರ್ಪಡೆ	-11.9332
▁சாத்தியமுள்ள	-11.9332
▁சுவாரசியமா	-11.9332
▁അഗ്നിപർവ്വത	-11.9332
দ্বন্দ্ব	-11.9332
▁disciplin	-11.9332
▁photos	-11.9332
▁success	-11.9332
▁सोव्हिएत	-11.9332
▁கையெழுத்திட	-11.9332
▁భూభాగా	-11.9332
▁ಕಂಡುಹಿಡಿದ	-11.9332
▁ಕೌಶಲ್ಯ	-11.9332
▁ವ್ಯಾಪ್ತಿಯ	-11.9332
▁അദ്ദേഹത്തിന	-11.9332
▁ഓർഗനൈസേഷ	-11.9332
▁താൽക്കാലിക	-11.9332
▁ദൂരദർശിനി	-11.9332
▁നേരിടേണ്ടിവ	-11.9332
▁പരാമർശിക്കു	-11.9332
▁ബഹുമാന	-11.9332
▁യൂണിവേഴ്സിറ്റി	-11.9332
▁റെക്കോർഡ	-11.9332
▁ശുദ്ധീകരി	-11.9332
Australopithecus	-11.9332
Original	-11.9332
Oyapock	-11.9332
enlightenment	-11.9332
nstitute	-11.9332
recogniz	-11.9332
आत्मज्ञान	-11.9332
दुरुस्ती	-11.9332
दुर्व्यवहार	-11.9332
निवर्सिटी	-11.9332
न्यूज़ीलैंड	-11.9332
ఏ	-12.3597
Q	-13.3594
ఘ	-13.3595
ఐ	-13.3596
$	-13.3597
ಐ	-13.3598
ഐ	-13.3599
ಓ	-13.36
ఓ	-13.3601
ಞ	-13.3602
ঝ	-13.3603
ಏ	-13.3604
J	-13.3605
ஞ	-13.3606
ஃ	-13.3607
ऐ	-13.3608
ౌ	-13.3609
q	-13.361
ৈ	-13.3611
ञ	-13.3612
ऱ	-13.3613
ঞ	-13.3614
ऑ	-13.3615
U	-13.3616
E	-13.3617
ഏ	-13.3618
H	-13.3619
ঠ	-13.362
x	-13.3621
ৃ	-13.3622
ಉ	-13.3623
M	-13.3624
ृ	-13.3625
ఒ	-13.3626
7	-13.3627
3	-13.3628
6	-13.3629
ఆ	-13.363
8	-13.3631
ഞ	-13.3632
A	-13.3633
ஒ	-13.3634
ഉ	-13.3635
9	-13.3636
ആ	-13.3637
উ	-13.3638
உ	-13.3639
औ	-13.364
उ	-13.3641
ಒ	-13.3641
ভ	-13.3642
ங	-13.3643
അ	-13.3644
ಅ	-13.3645
ಈ	-13.3645
